{
  "Ā": 0,
  "ā": 1,
  "Ă": 2,
  "ă": 3,
  "Ą": 4,
  "ą": 5,
  "Ć": 6,
  "ć": 7,
  "Ĉ": 8,
  "ĉ": 9,
  "Ċ": 10,
  "ċ": 11,
  "Č": 12,
  "č": 13,
  "Ď": 14,
  "ď": 15,
  "Đ": 16,
  "đ": 17,
  "Ē": 18,
  "ē": 19,
  "Ĕ": 20,
  "ĕ": 21,
  "Ė": 22,
  "ė": 23,
  "Ę": 24,
  "ę": 25,
  "Ě": 26,
  "ě": 27,
  "Ĝ": 28,
  "ĝ": 29,
  "Ğ": 30,
  "ğ": 31,
  "Ġ": 32,
  "!": 33,
  "\"": 34,
  "#": 35,
  "$": 36,
  "%": 37,
  "&": 38,
  "'": 39,
  "(": 40,
  ")": 41,
  "*": 42,
  "+": 43,
  ",": 44,
  "-": 45,
  ".": 46,
  "/": 47,
  "0": 48,
  "1": 49,
  "2": 50,
  "3": 51,
  "4": 52,
  "5": 53,
  "6": 54,
  "7": 55,
  "8": 56,
  "9": 57,
  ":": 58,
  ";": 59,
  "<": 60,
  "=": 61,
  ">": 62,
  "?": 63,
  "@": 64,
  "A": 65,
  "B": 66,
  "C": 67,
  "D": 68,
  "E": 69,
  "F": 70,
  "G": 71,
  "H": 72,
  "I": 73,
  "J": 74,
  "K": 75,
  "L": 76,
  "M": 77,
  "N": 78,
  "O": 79,
  "P": 80,
  "Q": 81,
  "R": 82,
  "S": 83,
  "T": 84,
  "U": 85,
  "V": 86,
  "W": 87,
  "X": 88,
  "Y": 89,
  "Z": 90,
  "[": 91,
  "\\": 92,
  "]": 93,
  "^": 94,
  "_": 95,
  "`": 96,
  "a": 97,
  "b": 98,
  "c": 99,
  "d": 100,
  "e": 101,
  "f": 102,
  "g": 103,
  "h": 104,
  "i": 105,
  "j": 106,
  "k": 107,
  "l": 108,
  "m": 109,
  "n": 110,
  "o": 111,
  "p": 112,
  "q": 113,
  "r": 114,
  "s": 115,
  "t": 116,
  "u": 117,
  "v": 118,
  "w": 119,
  "x": 120,
  "y": 121,
  "z": 122,
  "{": 123,
  "|": 124,
  "}": 125,
  "~": 126,
  "ġ": 127,
  "Ģ": 128,
  "ģ": 129,
  "Ĥ": 130,
  "ĥ": 131,
  "Ħ": 132,
  "ħ": 133,
  "Ĩ": 134,
  "ĩ": 135,
  "Ī": 136,
  "ī": 137,
  "Ĭ": 138,
  "ĭ": 139,
  "Į": 140,
  "į": 141,
  "İ": 142,
  "ı": 143,
  "Ĳ": 144,
  "ĳ": 145,
  "Ĵ": 146,
  "ĵ": 147,
  "Ķ": 148,
  "ķ": 149,
  "ĸ": 150,
  "Ĺ": 151,
  "ĺ": 152,
  "Ļ": 153,
  "ļ": 154,
  "Ľ": 155,
  "ľ": 156,
  "Ŀ": 157,
  "ŀ": 158,
  "Ł": 159,
  "ł": 160,
  "¡": 161,
  "¢": 162,
  "£": 163,
  "¤": 164,
  "¥": 165,
  "¦": 166,
  "§": 167,
  "¨": 168,
  "©": 169,
  "ª": 170,
  "«": 171,
  "¬": 172,
  "Ń": 173,
  "®": 174,
  "¯": 175,
  "°": 176,
  "±": 177,
  "²": 178,
  "³": 179,
  "´": 180,
  "µ": 181,
  "¶": 182,
  "·": 183,
  "¸": 184,
  "¹": 185,
  "º": 186,
  "»": 187,
  "¼": 188,
  "½": 189,
  "¾": 190,
  "¿": 191,
  "À": 192,
  "Á": 193,
  "Â": 194,
  "Ã": 195,
  "Ä": 196,
  "Å": 197,
  "Æ": 198,
  "Ç": 199,
  "È": 200,
  "É": 201,
  "Ê": 202,
  "Ë": 203,
  "Ì": 204,
  "Í": 205,
  "Î": 206,
  "Ï": 207,
  "Ð": 208,
  "Ñ": 209,
  "Ò": 210,
  "Ó": 211,
  "Ô": 212,
  "Õ": 213,
  "Ö": 214,
  "×": 215,
  "Ø": 216,
  "Ù": 217,
  "Ú": 218,
  "Û": 219,
  "Ü": 220,
  "Ý": 221,
  "Þ": 222,
  "ß": 223,
  "à": 224,
  "á": 225,
  "â": 226,
  "ã": 227,
  "ä": 228,
  "å": 229,
  "æ": 230,
  "ç": 231,
  "è": 232,
  "é": 233,
  "ê": 234,
  "ë": 235,
  "ì": 236,
  "í": 237,
  "î": 238,
  "ï": 239,
  "ð": 240,
  "ñ": 241,
  "ò": 242,
  "ó": 243,
  "ô": 244,
  "õ": 245,
  "ö": 246,
  "÷": 247,
  "ø": 248,
  "ù": 249,
  "ú": 250,
  "û": 251,
  "ü": 252,
  "ý": 253,
  "þ": 254,
  "ÿ": 255,
  "ä¸": 256,
  "ï¼": 257,
  "ï¼Į": 258,
  "çļ": 259,
  "çļĦ": 260,
  "ãĢ": 261,
  "ãĢĤ": 262,
  "ä»": 263,
  "äº": 264,
  "åı": 265,
  "æľ": 266,
  "åħ": 267,
  "è¿": 268,
  "æĺ": 269,
  "æĪ": 270,
  "è¯": 271,
  "ä¸Ģ": 272,
  "å¤": 273,
  "ä½": 274,
  "åĪ": 275,
  "çĶ": 276,
  "å®": 277,
  "åľ": 278,
  "åĲ": 279,
  "æĸ": 280,
  "å°": 281,
  "åĴ": 282,
  "ä¸ª": 283,
  "æĺ¯": 284,
  "åĴĮ": 285,
  "ç»": 286,
  "ä¹": 287,
  "åŃ": 288,
  "åĬ": 289,
  "ä»¥": 290,
  "ï¼ļ": 291,
  "ãĢģ": 292,
  "è®": 293,
  "æĪĳ": 294,
  "åľ¨": 295,
  "æľī": 296,
  "æĹ": 297,
  "æķ": 298,
  "åĽ": 299,
  "å¹": 300,
  "åı¯": 301,
  "è¿Ļ": 302,
  "éĩ": 303,
  "æĿ": 304,
  "ä¸Ń": 305,
  "åĩ": 306,
  "äºº": 307,
  "äºĨ": 308,
  "è¡": 309,
  "åº": 310,
  "å¸": 311,
  "éĢ": 312,
  "ä¸º": 313,
  "ĥ½": 314,
  "çī": 315,
  "ãĢĤĊ": 316,
  "å¥": 317,
  "é¢": 318,
  "åį": 319,
  "ä¼": 320,
  "å¾": 321,
  "çļĦæ": 322,
  "æŀ": 323,
  "åĨ": 324,
  "éĹ": 325,
  "ç§": 326,
  "æĸĩ": 327,
  "æī": 328,
  "âĢ": 329,
  "å¼": 330,
  "æł": 331,
  "è¦": 332,
  "è§": 333,
  "åĮ": 334,
  "å½": 335,
  "è¦ģ": 336,
  "çĶ¨": 337,
  "æŃ": 338,
  "èĥ½": 339,
  "éĿ": 340,
  "å¯": 341,
  "çŃ": 342,
  "åı¯ä»¥": 343,
  "ä¸ĭ": 344,
  "å·": 345,
  "ä»¬": 346,
  "ä¸į": 347,
  "çİ": 348,
  "çĶŁ": 349,
  "ä¸Ģä¸ª": 350,
  "æĢ": 351,
  "å°ı": 352,
  "èĢ": 353,
  "çĽ": 354,
  "æķ°": 355,
  "å¦": 356,
  "æĪĲ": 357,
  "åĵ": 358,
  "æ³": 359,
  "æĦ": 360,
  ".Ġ": 361,
  "æ°": 362,
  "åĳ": 363,
  "åŃĲ": 364,
  "åĪ°": 365,
  "åĩº": 366,
  "æ¯": 367,
  "åİ": 368,
  "æĥ": 369,
  "å¦Ĥ": 370,
  "æı": 371,
  "æĿ¥": 372,
  "èĩ": 373,
  "ä¸Ĭ": 374,
  "æĬ": 375,
  "ä½ł": 376,
  "åĪĨ": 377,
  "çº": 378,
  "é¢ĺ": 379,
  "ä»ĸ": 380,
  "æĭ": 381,
  "çĲ": 382,
  "ï¼Ł": 383,
  "æŀľ": 384,
  "è¾": 385,
  "å¥½": 386,
  "æĹ¶": 387,
  "ä¿": 388,
  "äºİ": 389,
  "å¿": 390,
  "è´": 391,
  "è¡Į": 392,
  "æİ": 393,
  "ä¾": 394,
  "æµ": 395,
  "åŃ¦": 396,
  "æĽ": 397,
  "ç®": 398,
  "çī©": 399,
  "eĠ": 400,
  "æį": 401,
  "åľ°": 402,
  "å¤§": 403,
  "å¤©": 404,
  "ç±": 405,
  "å°Ĩ": 406,
  "èµ": 407,
  "å¤ļ": 408,
  "ç»Ļ": 409,
  "æĶ": 410,
  "çŃī": 411,
  "èī": 412,
  "æľ¬": 413,
  "é£": 414,
  "éľ": 415,
  "æĻ": 416,
  "æ¬": 417,
  "éĿ¢": 418,
  "æĸ¹": 419,
  "å¯¹": 420,
  "ä½ľ": 421,
  "æĺİ": 422,
  "å±": 423,
  "å®ĥ": 424,
  "äºĽ": 425,
  "åĬ¨": 426,
  "æľĢ": 427,
  "å®ļ": 428,
  "æ¸": 429,
  "æĤ": 430,
  "èĩª": 431,
  "ä¼ļ": 432,
  "çļĦç": 433,
  "æıĲ": 434,
  "åħ¶": 435,
  ",Ġ": 436,
  "éĹ®": 437,
  "å¹¶": 438,
  "çİ°": 439,
  "æĮ": 440,
  "è½": 441,
  "åĽł": 442,
  "âĢľ": 443,
  "éľĢ": 444,
  "âĢĿ": 445,
  "åħ³": 446,
  "æ²": 447,
  "æ³ķ": 448,
  "æį®": 449,
  "éĻ": 450,
  "æĪĸ": 451,
  "åı¥": 452,
  "åĬł": 453,
  "è¯Ń": 454,
  "æĽ´": 455,
  "ç§į": 456,
  "èĬ": 457,
  "çĦ": 458,
  "æ´": 459,
  "ç³": 460,
  "è¿ĩ": 461,
  "åĵģ": 462,
  "ç±»": 463,
  "æĪĳä»¬": 464,
  "è¯·": 465,
  "ä½ĵ": 466,
  "éĺ": 467,
  "è¡¨": 468,
  "å¸¸": 469,
  "éģ": 470,
  "æĦŁ": 471,
  "å¾Ĺ": 472,
  "åıĳ": 473,
  "èī²": 474,
  "çĤ": 475,
  "æ±": 476,
  "ç«": 477,
  "åĲĮ": 478,
  "çĦ¶": 479,
  "è¿Ľ": 480,
  "ä¹Ī": 481,
  "æĤ¨": 482,
  "ç¾": 483,
  "éľĢè¦ģ": 484,
  "è¯į": 485,
  "åī": 486,
  "çľ": 487,
  "åº¦": 488,
  "åŁ": 489,
  "è°": 490,
  "éĩı": 491,
  "æŃ¤": 492,
  "ä½¿": 493,
  "å¹´": 494,
  "é«": 495,
  "å®¶": 496,
  "çĶµ": 497,
  "é«ĺ": 498,
  "åģ": 499,
  "-Ġ": 500,
  "æĢ§": 501,
  "åĬĽ": 502,
  "éĶ": 503,
  "in": 504,
  "èĭ": 505,
  "è®¡": 506,
  "ä¹ĭ": 507,
  "è¿Ļä¸ª": 508,
  "éĤ": 509,
  "çŁ": 510,
  "ä¹Ł": 511,
  "æĸ°": 512,
  "çĲĨ": 513,
  "ç¬": 514,
  "é¦": 515,
  "æĥħ": 516,
  "åĲİ": 517,
  "sĠ": 518,
  "åĮĸ": 519,
  "æ¡": 520,
  "è§£": 521,
  "è¶": 522,
  "åħ¥": 523,
  "ä»¥ä¸ĭ": 524,
  "ä¸»": 525,
  "æīĢ": 526,
  "çĿ": 527,
  "åĲį": 528,
  "åĢ": 529,
  "å·¥": 530,
  "ç¾İ": 531,
  "æľº": 532,
  "åºĶ": 533,
  "éĹ®é¢ĺ": 534,
  "éĹ´": 535,
  "éĩĮ": 536,
  "å½±": 537,
  "éĢļ": 538,
  "æ°Ķ": 539,
  "ç¨": 540,
  "èĤ": 541,
  "åĲĪ": 542,
  "åĸ": 543,
  "æģ": 544,
  "æł¹": 545,
  "åħ¬": 546,
  "èĢĮ": 547,
  "an": 548,
  "åŃĹ": 549,
  "è¿ĺ": 550,
  "æĸĩæľ¬": 551,
  "éĩį": 552,
  "ç©": 553,
  "çĽ¸": 554,
  "å¼ı": 555,
  "çĤ¹": 556,
  "åĿ": 557,
  "00": 558,
  "æĦı": 559,
  "éķ": 560,
  "çĿĢ": 561,
  "éĤ£": 562,
  "ç®Ĺ": 563,
  "æ°´": 564,
  "éħ": 565,
  "er": 566,
  "æ¯ı": 567,
  "çĥ": 568,
  "æĹ¥": 569,
  "=Ġ": 570,
  "å¾Ī": 571,
  "æ¯Ķ": 572,
  "èĢħ": 573,
  "çĲĥ": 574,
  "åĽ½": 575,
  "å½ĵ": 576,
  "ç¤": 577,
  "ç»ı": 578,
  "è¿°": 579,
  "å¿ĥ": 580,
  "æĥ³": 581,
  "åĮħ": 582,
  "æł¹æį®": 583,
  "åįķ": 584,
  "th": 585,
  "è·": 586,
  "éĥ½": 587,
  "çļĦï¼Į": 588,
  "ä¾Ľ": 589,
  "èį": 590,
  "äºĭ": 591,
  "æŁ": 592,
  "çī¹": 593,
  "åĨĻ": 594,
  "on": 595,
  "é¡": 596,
  "éĽ": 597,
  "èĲ": 598,
  "ä¿Ŀ": 599,
  "çŃĶ": 600,
  "è¯¥": 601,
  "æ·": 602,
  "ç¡": 603,
  "åı¥åŃĲ": 604,
  "ï¼Įå¹¶": 605,
  "Ġ=Ġ": 606,
  "ç½": 607,
  "æĺ¯ä¸Ģ": 608,
  "åħĥ": 609,
  "éģĵ": 610,
  "ç¨ĭ": 611,
  "åħ·": 612,
  "éķ¿": 613,
  "çķ": 614,
  "è¢": 615,
  "å»": 616,
  "ŀĭ": 617,
  "çĭ": 618,
  "è®©": 619,
  "æ¡Ī": 620,
  "å®ŀ": 621,
  "éĿŀ": 622,
  "ä½¿çĶ¨": 623,
  "æıĲä¾Ľ": 624,
  "åİ»": 625,
  "ä¸İ": 626,
  "ä¿¡": 627,
  "å°ıæĺİ": 628,
  "ç´": 629,
  "è¯´": 630,
  "æ®": 631,
  "åķ": 632,
  "å¼Ģ": 633,
  "å¢": 634,
  "ä¸¤": 635,
  "è¿Ľè¡Į": 636,
  "å¤ĸ": 637,
  "éĢĤ": 638,
  "é£Ł": 639,
  "åĽŀ": 640,
  "ä½Ĩ": 641,
  "tĠ": 642,
  "éĥ": 643,
  "ãĢĤè¿Ļ": 644,
  "éĢī": 645,
  "å»º": 646,
  "çĶŁæĪĲ": 647,
  "ä¸ĢäºĽ": 648,
  "ä»£": 649,
  "çĪ": 650,
  "èµ·": 651,
  "å¦Ĥæŀľ": 652,
  "ï¼ī": 653,
  "ç¿": 654,
  "æŃ£": 655,
  "å°ĳ": 656,
  "éļ": 657,
  "ç³»": 658,
  "ç¼": 659,
  "çĽ®": 660,
  "åĪ¶": 661,
  "ç»ĵ": 662,
  "ä»İ": 663,
  "ï¼Ī": 664,
  "æĹł": 665,
  "æ»": 666,
  "en": 667,
  "é£İ": 668,
  "åıĺ": 669,
  "åĽłæŃ¤": 670,
  "é»": 671,
  "åĪĹ": 672,
  "åĸľ": 673,
  "ç¡®": 674,
  "éĴ": 675,
  "åıª": 676,
  "æĬĢ": 677,
  "æ¬¢": 678,
  "çľĭ": 679,
  "å¹³": 680,
  "æ®µ": 681,
  "10": 682,
  "åĨħ": 683,
  "æģ¯": 684,
  "åŀĭ": 685,
  "éĿŀå¸¸": 686,
  "å¸®": 687,
  "éĥ¨": 688,
  "ä»Ģ": 689,
  "è´¨": 690,
  "ä½į": 691,
  "é¥": 692,
  "ä»Ģä¹Ī": 693,
  "20": 694,
  "è¢«": 695,
  "è¯Ŀ": 696,
  "æľ¯": 697,
  "èº": 698,
  "or": 699,
  "éŁ": 700,
  "å¸Ĥ": 701,
  "æł¼": 702,
  "ï¼ĮæĪĳ": 703,
  "èĪ": 704,
  "åīį": 705,
  "æĻº": 706,
  "é¸": 707,
  "èĬ±": 708,
  "ä¸ī": 709,
  "çł": 710,
  "æĺŁ": 711,
  "ä½ķ": 712,
  "ç¯": 713,
  "çº¢": 714,
  "åıĹ": 715,
  "èº«": 716,
  "åħ¨": 717,
  "ãĢĭ": 718,
  "æīĭ": 719,
  "ãĢĬ": 720,
  "äº§": 721,
  "è®¡ç®Ĺ": 722,
  "å£": 723,
  "ä¸Ńï¼Į": 724,
  "æ´»": 725,
  "ç«ł": 726,
  "å½¢": 727,
  "èı": 728,
  "è®¾": 729,
  "ä¾ĭ": 730,
  "dĠ": 731,
  "æıı": 732,
  "å§": 733,
  "ä»¶": 734,
  "ç»Ļå®ļ": 735,
  "åĪ«": 736,
  "å°±": 737,
  "éª": 738,
  "èģ": 739,
  "ar": 740,
  "ï¼Įè¿Ļ": 741,
  "æ¶": 742,
  "ä¹Ĳ": 743,
  "çģ": 744,
  "çĻ": 745,
  "ä¸ŃçļĦ": 746,
  "æĸĩç«ł": 747,
  "ç®Ģ": 748,
  "ä¸ļ": 749,
  "çĶµå½±": 750,
  "æ±Ĥ": 751,
  "ä»·": 752,
  ":Ġ": 753,
  "æµ·": 754,
  "æĻºèĥ½": 755,
  "åľº": 756,
  "é¦ĸ": 757,
  "æĢ»": 758,
  "è±": 759,
  "æľĪ": 760,
  "èĭ±": 761,
  "æľŁ": 762,
  "è£": 763,
  "aĠ": 764,
  "ä¹ł": 765,
  "æİ¨": 766,
  "çĸ": 767,
  "æĭ¬": 768,
  "ç¿»": 769,
  "æ¼": 770,
  "å®ĥä»¬": 771,
  "è¾ĵ": 772,
  "å±ķ": 773,
  "åĬ¡": 774,
  "åĪ©": 775,
  "åıĸ": 776,
  "æłĩ": 777,
  "ç»Ħ": 778,
  "æĶ¾": 779,
  "ç§ĳ": 780,
  "åħī": 781,
  "å¥½çļĦï¼Į": 782,
  "çĮ": 783,
  "åıĬ": 784,
  "èĥ": 785,
  "åĪĽ": 786,
  "åĻ": 787,
  "æııè¿°": 788,
  "ç²": 789,
  "éĵ": 790,
  "èĻ": 791,
  "ï¼Įä½Ĩ": 792,
  "èĬĤ": 793,
  "è¨": 794,
  "ç¯ĩ": 795,
  "éŁ³": 796,
  "çŁ¥": 797,
  "ä¿¡æģ¯": 798,
  "åĸľæ¬¢": 799,
  "ï¼Įä»ĸ": 800,
  "æĸĻ": 801,
  "åı¯èĥ½": 802,
  "è¯ĳ": 803,
  "åĳ³": 804,
  "ç¥": 805,
  "åıĭ": 806,
  "åĬ©": 807,
  "è¨Ģ": 808,
  "æĮģ": 809,
  "å·±": 810,
  "ç³ĸ": 811,
  "çĶ±": 812,
  "åĻ¨": 813,
  "èĩªå·±": 814,
  "æ¸¸": 815,
  "è®º": 816,
  "ï¼Įåı¯ä»¥": 817,
  "ç¤º": 818,
  "è¾¾": 819,
  "åİŁ": 820,
  "åı£": 821,
  "yĠ": 822,
  "ãĢĤåľ¨": 823,
  "æ²¡": 824,
  "èĦ": 825,
  "ç¿»è¯ĳ": 826,
  "è½¦": 827,
  "æķ°æį®": 828,
  "æł·": 829,
  "è®®": 830,
  "æ¬¡": 831,
  "åĢ¼": 832,
  "å®¹": 833,
  "1.Ġ": 834,
  "èİ": 835,
  "å¤Ħ": 836,
  "çİ¯": 837,
  "çĪ±": 838,
  "2.Ġ": 839,
  "ï¼Įä»¥": 840,
  "åºı": 841,
  "æĮĩ": 842,
  "ou": 843,
  "æµģ": 844,
  "éĢļè¿ĩ": 845,
  "ä»»": 846,
  "ä¸įåĲĮ": 847,
  "åĮħæĭ¬": 848,
  "æŃ¥": 849,
  "ä¹¦": 850,
  "oĠ": 851,
  "åĽłä¸º": 852,
  "ä¹ī": 853,
  "ä¸ĸ": 854,
  "æī¾": 855,
  "èıľ": 856,
  "æĭ©": 857,
  "æ¸ħ": 858,
  "åĲĹ": 859,
  "æĻ¯": 860,
  "åĩł": 861,
  "éĢīæĭ©": 862,
  "å¤ª": 863,
  "è§Ĥ": 864,
  "åĳĬ": 865,
  "es": 866,
  "ç©º": 867,
  "åħ±": 868,
  "éĺ³": 869,
  "é©": 870,
  "¤Ĳ": 871,
  "åħĭ": 872,
  "è¯Ĺ": 873,
  "åĨ³": 874,
  "é¤Ĳ": 875,
  "ç¦": 876,
  "åĲĹï¼Ł": 877,
  "äº¤": 878,
  "åı¸": 879,
  "èĮ": 880,
  "ãĢĤå¥½çļĦï¼Į": 881,
  "ä¸¤ä¸ª": 882,
  "æľį": 883,
  "è¿Ĳ": 884,
  "åķĨ": 885,
  "çħ": 886,
  "at": 887,
  "å¸¦": 888,
  "å¤Ł": 889,
  "ï¼ĮæĪĳä»¬": 890,
  "ç¬¬": 891,
  "3.Ġ": 892,
  "ç»Ł": 893,
  "éĤ£ä¹Ī": 894,
  "äººå·¥": 895,
  "æ¸©": 896,
  "æ·±": 897,
  "æĺ¯ä¸Ģä¸ª": 898,
  "ï¼Ľ": 899,
  "æķ´": 900,
  "çķĮ": 901,
  "çİ°åľ¨": 902,
  "æ¨": 903,
  "ä¹°": 904,
  "åĽŀçŃĶ": 905,
  "æ²¡æľī": 906,
  "ä»½": 907,
  "äººå·¥æĻºèĥ½": 908,
  "æ³¨": 909,
  "åŃ¦ä¹ł": 910,
  "al": 911,
  "åŁİ": 912,
  "è°ĥ": 913,
  "æĶ¯": 914,
  "æĹ¶éĹ´": 915,
  "ç±³": 916,
  "åħĪ": 917,
  "åģļ": 918,
  "èĩªçĦ¶": 919,
  "ï¼ģ": 920,
  "``": 921,
  "æķħ": 922,
  "åĵį": 923,
  "æŃĮ": 924,
  "æľĭ": 925,
  "æ£": 926,
  "åĲĳ": 927,
  "å¼º": 928,
  "åİĨ": 929,
  "éĩĳ": 930,
  "è¯ķ": 931,
  "èĲ½": 932,
  "å®ī": 933,
  "å·²": 934,
  "æľĭåıĭ": 935,
  "æĪ·": 936,
  "é¢Ĩ": 937,
  "æ¯ıä¸ª": 938,
  "åħ³äºİ": 939,
  "el": 940,
  "å¢ĥ": 941,
  "åŁº": 942,
  "æĿ¡": 943,
  "åĳĺ": 944,
  "çº¦": 945,
  "æĳ": 946,
  "è¯Ħ": 947,
  "åį³": 948,
  "æŀģ": 949,
  "å¥¹": 950,
  "åģ¥": 951,
  "ä¼ł": 952,
  "éĶ®": 953,
  "å¦Ĥä½ķ": 954,
  "ä»ĸä»¬": 955,
  "æİĴ": 956,
  "æļ": 957,
  "æº": 958,
  "åĪĻ": 959,
  "åħ¬åı¸": 960,
  "åĵª": 961,
  "ä»Ĭ": 962,
  "åĪĨç±»": 963,
  "ç´ł": 964,
  "æľª": 965,
  "çĹ": 966,
  "å±±": 967,
  "æİ¥": 968,
  "å¥³": 969,
  "åĽłæŃ¤ï¼Į": 970,
  "ä¸»é¢ĺ": 971,
  "åĮº": 972,
  "æĬĢæľ¯": 973,
  "ãĢĤæĪĳ": 974,
  "åħ¶ä»ĸ": 975,
  "è¯Ńè¨Ģ": 976,
  "æķĪ": 977,
  "çŃĶæ¡Ī": 978,
  "é¡¹": 979,
  "¹æŀľ": 980,
  "æĹ¶ï¼Į": 981,
  "çĬ": 982,
  "æĸŃ": 983,
  "ä¸Ģä¸ĭ": 984,
  "åĲ«": 985,
  "éĩįè¦ģ": 986,
  "å¿«": 987,
  "æ¨¡": 988,
  "èĭ¹æŀľ": 989,
  "ing": 990,
  "è¥": 991,
  "st": 992,
  "æĢĿ": 993,
  "æīĢä»¥": 994,
  "ç»Ĩ": 995,
  "è½»": 996,
  "å®Į": 997,
  "æĶ¹": 998,
  "åĬ¨çī©": 999,
  "çŁŃ": 1000,
  "å¸®åĬ©": 1001,
  "è¿ĳ": 1002,
  "å¯¼": 1003,
  "è¥¿": 1004,
  "ä¾ĭå¦Ĥ": 1005,
  "èĽ": 1006,
  "å¤ļå°ĳ": 1007,
  "ç§¯": 1008,
  "æĲ": 1009,
  "å»ºè®®": 1010,
  "åįķè¯į": 1011,
  "åĲ¦": 1012,
  "åĶ": 1013,
  "è±¡": 1014,
  "é¢Ħ": 1015,
  "éĢł": 1016,
  "çĶ·": 1017,
  "åĩĨ": 1018,
  "åĩı": 1019,
  "åĲĦ": 1020,
  "èĳ": 1021,
  "å¤ĩ": 1022,
  "æĹħ": 1023,
  "å¼ķ": 1024,
  "çĻ½": 1025,
  "ï¼ĮèĢĮ": 1026,
  "æ»¡": 1027,
  "éħį": 1028,
  "çīĩ": 1029,
  "èĥ½å¤Ł": 1030,
  "ä¸Ķ": 1031,
  "åĲĥ": 1032,
  "çº¿": 1033,
  "èĢĥ": 1034,
  "å½±åĵį": 1035,
  "åħ³éĶ®": 1036,
  "ä¼ĺ": 1037,
  "Ġ-Ġ": 1038,
  "å§ĭ": 1039,
  "çı": 1040,
  "æ¬¾": 1041,
  "ä¸ĸçķĮ": 1042,
  "çŃīãĢĤ": 1043,
  "å¤´": 1044,
  "æĬĬ": 1045,
  "è¯Ĩ": 1046,
  "ç»ĻæĪĳ": 1047,
  "åŁŁ": 1048,
  "çĭĹ": 1049,
  "|Ġ": 1050,
  "ç¼ĸ": 1051,
  "çĮ«": 1052,
  "å¾ĹåĪ°": 1053,
  "èįĲ": 1054,
  "åºĶçĶ¨": 1055,
  "theĠ": 1056,
  "Â·": 1057,
  "åĨį": 1058,
  "è§Ĵ": 1059,
  "re": 1060,
  "æ¤": 1061,
  "ï¼Įè®©": 1062,
  "æĸ¯": 1063,
  "é¦Ļ": 1064,
  "çĥŃ": 1065,
  "è¯»": 1066,
  "åŃĺ": 1067,
  "çĽ´": 1068,
  "æķħäºĭ": 1069,
  "åºĶè¯¥": 1070,
  "æīĵ": 1071,
  "å²": 1072,
  "åĳ¨": 1073,
  "æİ¨èįĲ": 1074,
  "åıĳå±ķ": 1075,
  "åıį": 1076,
  "ãĢĤè¯·": 1077,
  "æĽ´åĬł": 1078,
  "ic": 1079,
  "12": 1080,
  "åĮ»": 1081,
  "äººä»¬": 1082,
  "è·¯": 1083,
  "ç³ĸæŀľ": 1084,
  "åŃ£": 1085,
  "è½¬": 1086,
  "è°¢": 1087,
  "ç½ĳ": 1088,
  "èĤī": 1089,
  "ï¼Įå®ĥ": 1090,
  "å¥½çļĦ": 1091,
  "ï¼Įä½ł": 1092,
  "å¤į": 1093,
  "è§Ĩ": 1094,
  "æĿĲ": 1095,
  "èĩ³": 1096,
  "è¾ĥ": 1097,
  "éĻ¤": 1098,
  "è§ī": 1099,
  "äºĨä¸Ģ": 1100,
  "äººç±»": 1101,
  "æµĭ": 1102,
  "å¢ŀ": 1103,
  "éªĮ": 1104,
  "æĸ¹æ³ķ": 1105,
  "è¿ĻäºĽ": 1106,
  "è®¾è®¡": 1107,
  "éĶĻ": 1108,
  "æĸ¹å¼ı": 1109,
  "æľĽ": 1110,
  "ä¸Ģç¯ĩ": 1111,
  "è´Ń": 1112,
  "åĿĩ": 1113,
  "å¹¿": 1114,
  "ãĢĤĊæł¹æį®": 1115,
  "æĪĸèĢħ": 1116,
  "è¯ī": 1117,
  "è®¤": 1118,
  "+Ġ": 1119,
  "åŁİå¸Ĥ": 1120,
  "å®¢": 1121,
  "è¶³": 1122,
  "åĬŁ": 1123,
  "ç»Ļåĩº": 1124,
  "ç»Ļå®ļçļĦ": 1125,
  "ç¤¾": 1126,
  "è¾ĵåħ¥": 1127,
  "èĽĭ": 1128,
  "ä¹ĭéĹ´": 1129,
  "æķ°åŃĹ": 1130,
  "ä¹ĭä¸Ģ": 1131,
  "le": 1132,
  "ç§°": 1133,
  "åı·": 1134,
  "om": 1135,
  "çļĦæĥ": 1136,
  "çĶŁæ´»": 1137,
  "è£ħ": 1138,
  "è®¸": 1139,
  "æ¢": 1140,
  "åº·": 1141,
  "ãĢĤå¦Ĥæŀľ": 1142,
  "èħ": 1143,
  "ç¥ŀ": 1144,
  "çłģ": 1145,
  "æĢģ": 1146,
  "çľŁ": 1147,
  "äºĮ": 1148,
  "åĳ½": 1149,
  "15": 1150,
  "4.Ġ": 1151,
  "å¤©æ°Ķ": 1152,
  "åħ¶ä¸Ń": 1153,
  "åĨµ": 1154,
  "isĠ": 1155,
  "çīĽ": 1156,
  "å¤ı": 1157,
  "åı²": 1158,
  "éĢŁ": 1159,
  "å¤ĸï¼Į": 1160,
  "åı¤": 1161,
  "é»ĳ": 1162,
  "ç¬Ķ": 1163,
  "é²": 1164,
  "ĠĠ": 1165,
  "æĪĺ": 1166,
  "æºĲ": 1167,
  "è¾¹": 1168,
  "åĢĻ": 1169,
  "çİ¯å¢ĥ": 1170,
  "ä¸½": 1171,
  "éĩĬ": 1172,
  "Ġ+Ġ": 1173,
  "çİĩ": 1174,
  "é¸¡": 1175,
  "éŁ³ä¹Ĳ": 1176,
  "æ¼Ķ": 1177,
  "it": 1178,
  "åĳĬè¯ī": 1179,
  "åģ¥åº·": 1180,
  "çĦ¶åĲİ": 1181,
  "é¢ĨåŁŁ": 1182,
  "ä¸ŃåĽ½": 1183,
  "éļı": 1184,
  "ï¼Įå¦Ĥ": 1185,
  "èĩ´": 1186,
  "ç¬¦": 1187,
  "æĬ¤": 1188,
  "çĭ¬": 1189,
  "æĺ¯ä¸Ģç§į": 1190,
  "æĶ¶": 1191,
  "æŁ¥": 1192,
  "ç«ĭ": 1193,
  "æĬ¥": 1194,
  "äº§åĵģ": 1195,
  "ç¿»è¯ĳæĪĲ": 1196,
  "åĽŃ": 1197,
  "ç½®": 1198,
  "è§ģ": 1199,
  "ï¼ļâĢľ": 1200,
  "è¶Ĭ": 1201,
  "åī©": 1202,
  "äº«": 1203,
  "çħ§": 1204,
  "ç»Ń": 1205,
  "è¶£": 1206,
  "éĢĤåĲĪ": 1207,
  "è¡£": 1208,
  "åı¥è¯Ŀ": 1209,
  "æĸĩæ¡Ī": 1210,
  "æķ°éĩı": 1211,
  "çļĦäºº": 1212,
  "ä¸»è¦ģ": 1213,
  "um": 1214,
  "åıĤ": 1215,
  "åĲ¬": 1216,
  "é»Ħ": 1217,
  "åĽ¾": 1218,
  "ç¦»": 1219,
  "æĺĵ": 1220,
  "çļĦæĦ": 1221,
  "ä¾¿": 1222,
  "ç¢": 1223,
  "èįī": 1224,
  "åħ·ä½ĵ": 1225,
  "å¸ĥ": 1226,
  "å¡": 1227,
  "å·¥ä½ľ": 1228,
  "åĳ¢": 1229,
  "æŀĦ": 1230,
  "åĥ": 1231,
  "ç²¾": 1232,
  "å½ĵçĦ¶": 1233,
  "ä»Ĭå¤©": 1234,
  "ç©¶": 1235,
  "å¥¶": 1236,
  "åĨħå®¹": 1237,
  "åįİ": 1238,
  "ç®¡": 1239,
  "ï¼ĮåĽłä¸º": 1240,
  "ç»ĵæŀľ": 1241,
  "ï¼Įä¹Ł": 1242,
  "ï¼Įåľ¨": 1243,
  "æĸ¹éĿ¢": 1244,
  "éĢļå¸¸": 1245,
  "erĠ": 1246,
  "éĹ¨": 1247,
  "æħ": 1248,
  "èĢģ": 1249,
  "æľªæĿ¥": 1250,
  "çļĦæĥħ": 1251,
  "å°½": 1252,
  "é¥®": 1253,
  "æŀĲ": 1254,
  "äºĶ": 1255,
  "éļ¾": 1256,
  "åħħ": 1257,
  "ï¼Įå°Ĩ": 1258,
  "è¡¨è¾¾": 1259,
  "åĪ°äºĨ": 1260,
  "ãĢĤâĢĿ": 1261,
  "æķĻ": 1262,
  "ï¼Įè¯·": 1263,
  "ä¸Ģç§į": 1264,
  "åħ·æľī": 1265,
  "ç§ĭ": 1266,
  "è§Ħ": 1267,
  "åįĩ": 1268,
  "æıĲé«ĺ": 1269,
  "ch": 1270,
  "fĠ": 1271,
  "æĿ¾": 1272,
  "å°Ķ": 1273,
  "li": 1274,
  "æĽ²": 1275,
  "æĮī": 1276,
  "ï¼ĮéĤ£ä¹Ī": 1277,
  "å·²ç»ı": 1278,
  "pr": 1279,
  "éĺŁ": 1280,
  "å¼ł": 1281,
  "çĸĹ": 1282,
  "æ©": 1283,
  "é©¬": 1284,
  "èİ·": 1285,
  "è®°": 1286,
  "100": 1287,
  "çĬ¶": 1288,
  "å£°": 1289,
  "å¸®æĪĳ": 1290,
  "æİ¢": 1291,
  "å¤ªéĺ³": 1292,
  "é±": 1293,
  "èµĦ": 1294,
  "åĥı": 1295,
  "é±¼": 1296,
  "åĲ¸": 1297,
  "èĭ±æĸĩ": 1298,
  "è§£åĨ³": 1299,
  "ç´¢": 1300,
  "èģĶ": 1301,
  "é¢ĺçĽ®": 1302,
  "æķ°åŃ¦": 1303,
  "èĵ": 1304,
  "Ķç©¶": 1305,
  "èµĽ": 1306,
  "å¼Ģå§ĭ": 1307,
  "ä»ĭ": 1308,
  "åĪĨæŀĲ": 1309,
  "ä¸Ģæ®µ": 1310,
  "çĶ»": 1311,
  "è®¸å¤ļ": 1312,
  "æ²¹": 1313,
  "æľºåĻ¨": 1314,
  "åĲĮæĹ¶": 1315,
  "åĽĽ": 1316,
  "ï¼Įä¸į": 1317,
  "èµ°": 1318,
  "æĭī": 1319,
  "ï¼Įä¾ĭå¦Ĥ": 1320,
  "æį¢": 1321,
  "è®²": 1322,
  "ä½łçļĦ": 1323,
  "çļĦæĢ": 1324,
  "è§£éĩĬ": 1325,
  "toĠ": 1326,
  "ãĢĤĊè¯·": 1327,
  "å£«": 1328,
  "å°ıçº¢": 1329,
  "ãĢĤåĽłæŃ¤ï¼Į": 1330,
  "ingĠ": 1331,
  "ä¸Ńæĸĩ": 1332,
  "ä»·æł¼": 1333,
  "èīº": 1334,
  "æīĢæľī": 1335,
  "æľįåĬ¡": 1336,
  "çļĦæ°": 1337,
  "éĻ©": 1338,
  "æĸĩåĮĸ": 1339,
  "æ¦": 1340,
  "é¸Ł": 1341,
  "é¢Ĺ": 1342,
  "è¿ĲåĬ¨": 1343,
  "åİħ": 1344,
  "ä¿®": 1345,
  "çĨ": 1346,
  "åĮĹ": 1347,
  "5.Ġ": 1348,
  "å°ıè¯´": 1349,
  "æĪĲä¸º": 1350,
  "å¤ĦçĲĨ": 1351,
  ".Ċ": 1352,
  "èĩªå·±çļĦ": 1353,
  "åĳĬè¯īæĪĳ": 1354,
  "åĳ¢ï¼Ł": 1355,
  "åĦ": 1356,
  "æĻļ": 1357,
  "ä½İ": 1358,
  "åħ³éĶ®è¯į": 1359,
  "ãĢĤæŃ¤": 1360,
  "ä¸Ģèµ·": 1361,
  "çģ«": 1362,
  "éĽĨ": 1363,
  "åĪ¶ä½ľ": 1364,
  "éĩĩ": 1365,
  "19": 1366,
  "çĥ¤": 1367,
  "è´¹": 1368,
  "æĺ¯åĲ¦": 1369,
  "éĽ¨": 1370,
  "è¾ĵåĩº": 1371,
  "è¿ľ": 1372,
  "ç³»ç»Ł": 1373,
  "æĪı": 1374,
  "åĽ´": 1375,
  "æĪ¿": 1376,
  "çĶŁæĪĲä¸Ģä¸ª": 1377,
  "åİĨåı²": 1378,
  "ï¼ļĊ": 1379,
  "è¡¨ç¤º": 1380,
  "ä¼¼": 1381,
  "åĭ": 1382,
  "çİ©": 1383,
  "çĹħ": 1384,
  "æ¯į": 1385,
  "éħĴ": 1386,
  "ï¼ĮåĮħæĭ¬": 1387,
  "æĽ´å¤ļ": 1388,
  "æĺ¥": 1389,
  "çĵ": 1390,
  "æīį": 1391,
  "å¯¹äºİ": 1392,
  "åŃ©": 1393,
  "é¢ľ": 1394,
  "åĴĸ": 1395,
  "åĦ¿": 1396,
  "æłĳ": 1397,
  "åĬłåħ¥": 1398,
  "å·§": 1399,
  "æĺ¾": 1400,
  "åľ°çĲĥ": 1401,
  "åķĨåĵģ": 1402,
  "à¤": 1403,
  "é£ŀ": 1404,
  "am": 1405,
  "andĠ": 1406,
  "å¾·": 1407,
  "æĴ": 1408,
  "ç»´": 1409,
  "åıĳçİ°": 1410,
  "çŁ¥éģĵ": 1411,
  "å¹²": 1412,
  "30": 1413,
  "æ´»åĬ¨": 1414,
  "éĴ±": 1415,
  "æŀĹ": 1416,
  "å±ŀ": 1417,
  "éĹ»": 1418,
  "åĿĹ": 1419,
  "é¾": 1420,
  "ãĢĤĊå°Ĩ": 1421,
  "åĪĹè¡¨": 1422,
  "æĥħæĦŁ": 1423,
  "ç»Ī": 1424,
  "èĻĳ": 1425,
  "çīĮ": 1426,
  "å¯Ĩ": 1427,
  "è¿ĺæľī": 1428,
  "å¾Īå¤ļ": 1429,
  "çĽ¸åħ³": 1430,
  "ç®Ģåįķ": 1431,
  "ĠÃ": 1432,
  "è¦ģæ±Ĥ": 1433,
  "åı¶": 1434,
  "çļĦéĹ®é¢ĺ": 1435,
  "åķ¡": 1436,
  "é¦ĸåħĪ": 1437,
  "ç©¿": 1438,
  "çª": 1439,
  "åĴĸåķ¡": 1440,
  "åı¦": 1441,
  "å¸Į": 1442,
  "å¤±": 1443,
  "ä¸ªäºº": 1444,
  "ç»¿": 1445,
  "åĮħåĲ«": 1446,
  "æĿ¯": 1447,
  "æĹłæ³ķ": 1448,
  "Ġ|Ġ": 1449,
  "åįģ": 1450,
  "nĠ": 1451,
  "åĪĴ": 1452,
  "èĵĿ": 1453,
  "å¨": 1454,
  "åħ³ç³»": 1455,
  "ä¿ĿæĮģ": 1456,
  "ti": 1457,
  "éĶĢ": 1458,
  "åĪĩ": 1459,
  "ãĢĤå®ĥ": 1460,
  "```": 1461,
  "ï¼ĮåĽłæŃ¤": 1462,
  "ç»ĥ": 1463,
  "éĴŁ": 1464,
  "lo": 1465,
  "è¶ħ": 1466,
  "å¤ľ": 1467,
  "æ¯Ķå¦Ĥ": 1468,
  "åħ´": 1469,
  "èľ": 1470,
  "å¥ĩ": 1471,
  "çļĦæĺ¯": 1472,
  "å¾®": 1473,
  "å¾ĭ": 1474,
  "æľĢåĲİ": 1475,
  "ä¸ĭéĿ¢": 1476,
  "äºĴ": 1477,
  "å°Ŀ": 1478,
  "åıĺåĮĸ": 1479,
  "å®Ŀ": 1480,
  "è¿ĩç¨ĭ": 1481,
  "æĢİ": 1482,
  "æ²Ļ": 1483,
  "æ¨¡åŀĭ": 1484,
  "se": 1485,
  "ä»¤": 1486,
  "èĪĴ": 1487,
  "å¯Į": 1488,
  "é¢ľèī²": 1489,
  "inĠ": 1490,
  "ï¼Įæľī": 1491,
  "onĠ": 1492,
  "æ³¨æĦı": 1493,
  "éĿĻ": 1494,
  "æ¶Ī": 1495,
  "åħ¸": 1496,
  "åįĹ": 1497,
  "ç§ĳåŃ¦": 1498,
  "Th": 1499,
  "ä¸ľ": 1500,
  "ac": 1501,
  "å¤§çļĦ": 1502,
  "ä¸ªèĭ¹æŀľ": 1503,
  "æķ£": 1504,
  "ç»į": 1505,
  "è¯ģ": 1506,
  "èº«ä½ĵ": 1507,
  "åºĹ": 1508,
  "é¤Ĳåİħ": 1509,
  "ä½ľä¸º": 1510,
  "ï¼ĮæīĢä»¥": 1511,
  "è¯¯": 1512,
  "éĻħ": 1513,
  "ä»ĭç»į": 1514,
  "ç¾İåĽ½": 1515,
  "åıĪ": 1516,
  "çº§": 1517,
  "ä¸ĩ": 1518,
  "çĶ¨æĪ·": 1519,
  "ï¼ļ1.Ġ": 1520,
  "å·´": 1521,
  "ï¼Įåį³": 1522,
  "ä»»åĬ¡": 1523,
  "æ¹": 1524,
  "å¹³åĿĩ": 1525,
  "æŁĲ": 1526,
  "çłĶç©¶": 1527,
  "æļĸ": 1528,
  "åħį": 1529,
  "æĸ°çļĦ": 1530,
  "ãĢĤ2.Ġ": 1531,
  "ä»£çłģ": 1532,
  "èĳĹ": 1533,
  "ä¸įåĲĮçļĦ": 1534,
  "èĲ¥": 1535,
  "æ½": 1536,
  "å¿ħ": 1537,
  "éĺ²": 1538,
  "ï¼ĮçĦ¶åĲİ": 1539,
  "äºļ": 1540,
  "äº¬": 1541,
  "å°±æĺ¯": 1542,
  "ç±»åŀĭ": 1543,
  "æī¾åĪ°": 1544,
  "å®īåħ¨": 1545,
  "ï¼Įä½¿": 1546,
  "ä¸Ģä»½": 1547,
  "éĥ½æĺ¯": 1548,
  "åħ¨çĲĥ": 1549,
  "æĹ©": 1550,
  "å¯»": 1551,
  "çļĦãĢĤ": 1552,
  "äºĨè§£": 1553,
  "åĲĦç§į": 1554,
  "ç§ĳæĬĢ": 1555,
  "18": 1556,
  "å®ŀçİ°": 1557,
  "åī©ä¸ĭ": 1558,
  "yth": 1559,
  "il": 1560,
  "èĴ": 1561,
  "å¸¦æĿ¥": 1562,
  "çĶ¨äºİ": 1563,
  "à¸": 1564,
  "ä¸ĵ": 1565,
  "æĤ¨çļĦ": 1566,
  "ä»ĸçļĦ": 1567,
  "50": 1568,
  "æĦŁåĪ°": 1569,
  "å¸Ī": 1570,
  "äººçļĦ": 1571,
  "çļĦç¾": 1572,
  "äºĳ": 1573,
  "å¸ĮæľĽ": 1574,
  "è´¨éĩı": 1575,
  "ofĠ": 1576,
  "å¿µ": 1577,
  "æĸĩæ¡Īï¼ļ": 1578,
  "æĺ¯ä»Ģä¹Ī": 1579,
  "ap": 1580,
  "è¾ĳ": 1581,
  "è´Ńä¹°": 1582,
  "ä¿ĿæĬ¤": 1583,
  "çļ®": 1584,
  "æıĲåıĸ": 1585,
  "ä¸īä¸ª": 1586,
  "é²ľ": 1587,
  "åĲ§": 1588,
  "åĲįç§°": 1589,
  "åħ»": 1590,
  "ur": 1591,
  "åĨ°": 1592,
  "çļĦä¸Ģ": 1593,
  "èĥ½åĬĽ": 1594,
  "ä¸įæĺ¯": 1595,
  "æ¤į": 1596,
  "ç¨ĭåºı": 1597,
  "æľ¨": 1598,
  "æĥħåĨµ": 1599,
  "ãĢĤ\"": 1600,
  "ãĢĤè¿Ļä¸ª": 1601,
  "å½©": 1602,
  "ï¼ļå°ıæĺİ": 1603,
  "ç¤¾ä¼ļ": 1604,
  "æĭ¥": 1605,
  "å¾ģ": 1606,
  "ow": 1607,
  "åį¡": 1608,
  "é£Łçī©": 1609,
  "åł": 1610,
  "ãĢĤä½ł": 1611,
  "çļĦæĬ": 1612,
  "å±Ĥ": 1613,
  "æŃ£ç¡®": 1614,
  "è½¯": 1615,
  "æĤ¨åı¯ä»¥": 1616,
  "è®¤ä¸º": 1617,
  "æłĩé¢ĺ": 1618,
  "çĶŁåĳ½": 1619,
  "åı°": 1620,
  "çĲĨè§£": 1621,
  "çİĭ": 1622,
  "ä»ħ": 1623,
  "éĵħ": 1624,
  "æľĢè¿ĳ": 1625,
  "ãĢĤĠ": 1626,
  "ãĢĤæŃ¤å¤ĸï¼Į": 1627,
  "èµ·æĿ¥": 1628,
  "as": 1629,
  "æĸ°éĹ»": 1630,
  "--": 1631,
  "orĠ": 1632,
  "ï¼ĮĊ": 1633,
  "çļĦç¾İ": 1634,
  "è¯ĹæŃĮ": 1635,
  "is": 1636,
  "æ¯Ķè¾ĥ": 1637,
  "çļĦåľ°": 1638,
  "è®¡ç®Ĺæľº": 1639,
  "int": 1640,
  "åĶ®": 1641,
  "èĢĥèĻĳ": 1642,
  "é¼": 1643,
  "é£İæł¼": 1644,
  "è¿ŀ": 1645,
  "éĵħç¬Ķ": 1646,
  "ç«Ļ": 1647,
  "æ¦Ĥ": 1648,
  "1.": 1649,
  "ä»»ä½ķ": 1650,
  "ï¼Įæ¯ı": 1651,
  "å®¤": 1652,
  "æ¸¸æĪı": 1653,
  "åĪĨéĴŁ": 1654,
  "åĩıå°ĳ": 1655,
  "åŃĺåľ¨": 1656,
  "ï¼Įä¸Ģ": 1657,
  "åĩłä¸ª": 1658,
  "ãĢĤ3.Ġ": 1659,
  "å¯¼èĩ´": 1660,
  "çıŃ": 1661,
  "éĨ": 1662,
  "èĤ²": 1663,
  "çļĦæł": 1664,
  "ä¸Ģé¦ĸ": 1665,
  "æ²»": 1666,
  "ç²ī": 1667,
  "åģĩ": 1668,
  "å®ĮæĪĲ": 1669,
  "ython": 1670,
  "Ġ2": 1671,
  "æĪĳä»¬çļĦ": 1672,
  "éĻį": 1673,
  "æĢİä¹Ī": 1674,
  "è´Ł": 1675,
  "esĠ": 1676,
  "æ°ĳ": 1677,
  "éĿĴ": 1678,
  "ãĢĤĊç»Ļå®ļ": 1679,
  "åī§": 1680,
  "æĵ": 1681,
  "èĪĴéĢĤ": 1682,
  "å½Ĵ": 1683,
  "å·®": 1684,
  "æ³¢": 1685,
  "ï¼Įåħ¶ä¸Ń": 1686,
  "åİĭ": 1687,
  "åŃ¦çĶŁ": 1688,
  "åĩºçİ°": 1689,
  "ï¼Įä»İ": 1690,
  "å¾Ģ": 1691,
  "æĪĳçļĦ": 1692,
  "æ¿": 1693,
  "ä¹ĭéĹ´çļĦ": 1694,
  "ad": 1695,
  "çĳ": 1696,
  "ä»¥åıĬ": 1697,
  "ĺè¦ģ": 1698,
  "ï¼Įæĺ¯": 1699,
  "æĹ¥æľŁ": 1700,
  "äºĨä¸Ģä¸ª": 1701,
  "æĥ³è¦ģ": 1702,
  "åĬ¿": 1703,
  "__": 1704,
  "åĽ¢": 1705,
  "åĪ»": 1706,
  "ä¸ĬçļĦ": 1707,
  "å¢ŀåĬł": 1708,
  "ä¸įèĥ½": 1709,
  "ãĢĤä»ĸ": 1710,
  "æİ§": 1711,
  "ç¡®å®ļ": 1712,
  "è¯¦": 1713,
  "éĶĻè¯¯": 1714,
  "åĵģçīĮ": 1715,
  "iĠ": 1716,
  "èİ·å¾Ĺ": 1717,
  "è·ĳ": 1718,
  "è¿ĺæĺ¯": 1719,
  "èīºæľ¯": 1720,
  "åºŃ": 1721,
  "æĹħæ¸¸": 1722,
  "å°Ŀè¯ķ": 1723,
  "çļĦæī": 1724,
  "ç§¯æŀģ": 1725,
  "æ¼«": 1726,
  "çŃĸ": 1727,
  "ï¼Įä½Ĩæĺ¯": 1728,
  "äº§çĶŁ": 1729,
  "äº®": 1730,
  "é¦Ĩ": 1731,
  "éº": 1732,
  "èŀ": 1733,
  "ä¸ºæĤ¨": 1734,
  "éĻĲ": 1735,
  "ä¸¾": 1736,
  "çļĦæŃ": 1737,
  "ï¼ĮåĲĮæĹ¶": 1738,
  "æ©Ļ": 1739,
  "æĮīçħ§": 1740,
  "æŃ£åľ¨": 1741,
  "æ´ĭ": 1742,
  "kĠ": 1743,
  "èī²çļĦ": 1744,
  "åĪ¤": 1745,
  "éĺ³åħī": 1746,
  "éŃ": 1747,
  "ä¹ĺ": 1748,
  "IĠ": 1749,
  "æĿĲæĸĻ": 1750,
  "av": 1751,
  "çļĦæĦı": 1752,
  "æ¿Ģ": 1753,
  "çļĦä¿¡æģ¯": 1754,
  "çŁ³": 1755,
  "åĬŁèĥ½": 1756,
  "æĹħè¡Į": 1757,
  "éŀĭ": 1758,
  "edĠ": 1759,
  "æ´ģ": 1760,
  "éĢģ": 1761,
  "æĸ½": 1762,
  "æľīè¶£": 1763,
  "è®¨": 1764,
  "ï¼ĮéľĢè¦ģ": 1765,
  "éĥ¨åĪĨ": 1766,
  "å°¼": 1767,
  "è¡Įä¸º": 1768,
  "un": 1769,
  "å²ģ": 1770,
  "æµª": 1771,
  "ãģ": 1772,
  "202": 1773,
  "åĮ»çĸĹ": 1774,
  "èĶ": 1775,
  "æĦŁåıĹ": 1776,
  "æĿİ": 1777,
  "æĲŃ": 1778,
  "ä½ľçĶ¨": 1779,
  "ä¸Ĭï¼Į": 1780,
  "è¯¦ç»Ĩ": 1781,
  "000": 1782,
  "ç½Ĺ": 1783,
  "enĠ": 1784,
  "tr": 1785,
  "ä½ľåĵģ": 1786,
  "ç¦ı": 1787,
  "éģ¿": 1788,
  "æĽ´å¥½": 1789,
  "éĺħ": 1790,
  "é¡º": 1791,
  "æ®µèĲ½": 1792,
  "æ»©": 1793,
  "ol": 1794,
  "æĭ¥æľī": 1795,
  "äº«åıĹ": 1796,
  "ç®Ĺæ³ķ": 1797,
  "çļĦå½±åĵį": 1798,
  "ä»¥ä¸ĭæĺ¯ä¸Ģ": 1799,
  "æ³Ľ": 1800,
  "çĻ¾": 1801,
  "ï¼Įæ¯Ķå¦Ĥ": 1802,
  "atĠ": 1803,
  "çĶ±äºİ": 1804,
  "anĠ": 1805,
  "ä¼Ĺ": 1806,
  "éľĢæ±Ĥ": 1807,
  "è¡¨çİ°": 1808,
  "åľĨ": 1809,
  "åħ±æľī": 1810,
  "ï¼Įå¦Ĥæŀľ": 1811,
  "è¿½": 1812,
  "25": 1813,
  "ä½Ļ": 1814,
  "å³": 1815,
  "ãĢĤè¿ĻäºĽ": 1816,
  "åĨĻä¸Ģç¯ĩ": 1817,
  "ç¾İä¸½": 1818,
  "ï¼Įä»ĸä»¬": 1819,
  "åºķ": 1820,
  "ä¸ºï¼ļ": 1821,
  "çļĦæµ": 1822,
  "ãĢĤä½Ĩ": 1823,
  "è±Ĩ": 1824,
  "åĩ½": 1825,
  "éħ±": 1826,
  "åıĳçĶŁ": 1827,
  "äº²": 1828,
  "å°ļ": 1829,
  "ï¼Įå¹¶ä¸Ķ": 1830,
  "åħĥç´ł": 1831,
  "ä¸ªç³ĸæŀľ": 1832,
  "ä½ĵéªĮ": 1833,
  "åĵªäºĽ": 1834,
  "æľĢç»Ī": 1835,
  "ä»¥ä¸ĭåı¥åŃĲ": 1836,
  "ï¼ĮæĪĳä»¬åı¯ä»¥": 1837,
  "åŃĹæ¯į": 1838,
  "you": 1839,
  "èĮ¶": 1840,
  "åı¯èĥ½ä¼ļ": 1841,
  "16": 1842,
  "èĳĹåĲį": 1843,
  "éĹ®é¢ĺï¼ļ": 1844,
  "ä¸įæĸŃ": 1845,
  "çīĪ": 1846,
  "èĮĥ": 1847,
  "ul": 1848,
  "ä½įç½®": 1849,
  "åįĬ": 1850,
  "çļĦæ¸": 1851,
  "åĩ½æķ°": 1852,
  "ç¡®ä¿Ŀ": 1853,
  "åħħæ»¡": 1854,
  "ä½ľèĢħ": 1855,
  "åį°": 1856,
  "Ġ(": 1857,
  "æĶ¿": 1858,
  "æľ¬ä¹¦": 1859,
  "åĸĦ": 1860,
  "qu": 1861,
  "åľŁ": 1862,
  "èĭ±è¯Ń": 1863,
  "åŀ": 1864,
  "AI": 1865,
  "å®¶åºŃ": 1866,
  "èĲ¨": 1867,
  "æīįèĥ½": 1868,
  "ãĢĤ1.Ġ": 1869,
  "çĽ®æłĩ": 1870,
  "åħ¬åĽŃ": 1871,
  "èĥĮ": 1872,
  "æ°´æŀľ": 1873,
  "è¿İ": 1874,
  "åº§": 1875,
  "åĩĨå¤ĩ": 1876,
  "å¾ħ": 1877,
  "æ¯ĶèµĽ": 1878,
  "æ¯Ľ": 1879,
  "èĪŀ": 1880,
  "ä»¥ä¸ĭæĺ¯": 1881,
  "æĹ¶åĢĻ": 1882,
  "è®¡åĪĴ": 1883,
  "çĶŁçī©": 1884,
  "èĦĳ": 1885,
  "äºī": 1886,
  "leĠ": 1887,
  "çķĻ": 1888,
  "å±ħ": 1889,
  "è¯Ħè®º": 1890,
  "å¹¿æ³Ľ": 1891,
  "åĲįåŃĹ": 1892,
  "æľīåħ³": 1893,
  "çİ°ä»£": 1894,
  "éĺħè¯»": 1895,
  "å®³": 1896,
  "xĠ": 1897,
  "æ¢¦": 1898,
  "æĪĲåĬŁ": 1899,
  "ä¸ºâĢľ": 1900,
  "åįĥ": 1901,
  "æ±½": 1902,
  "æ·»": 1903,
  "èŀį": 1904,
  "ä¸°": 1905,
  "å±ŀäºİ": 1906,
  "ä¼ĳ": 1907,
  "æ¥": 1908,
  "çģµ": 1909,
  "éª¤": 1910,
  "å¤ıå¤©": 1911,
  "åĮĹäº¬": 1912,
  "è¯ĨåĪ«": 1913,
  "ir": 1914,
  "te": 1915,
  "çļĦæĻ": 1916,
  "ç»ĩ": 1917,
  "æ¤įçī©": 1918,
  "æ²³": 1919,
  "åĲĮæĹ¶ï¼Į": 1920,
  "é¹": 1921,
  "å¤§åĪ©": 1922,
  "èĸ": 1923,
  "å¼Ĥ": 1924,
  "è®Ń": 1925,
  "çļĦæ¯": 1926,
  "num": 1927,
  "å©": 1928,
  "ç¬¬äºĮ": 1929,
  "é¢Ŀ": 1930,
  "ï¼Įè¿ĺ": 1931,
  "åŃĹç¬¦": 1932,
  "å½ĵçĦ¶åı¯ä»¥": 1933,
  "ç»ĵæŀĦ": 1934,
  "è¯·ä½ł": 1935,
  "æĿĤ": 1936,
  "äºĭä»¶": 1937,
  "éĿ¢ç§¯": 1938,
  "ï¼Įä»¥åıĬ": 1939,
  "è¯¢": 1940,
  "èī¯": 1941,
  "ãĢĤå½ĵ": 1942,
  "å®ĥä»¬çļĦ": 1943,
  "çļĦæİ": 1944,
  "çĶµåŃĲ": 1945,
  "ãĢĤĊä¸º": 1946,
  "æĿ¥è¯´": 1947,
  "æľºåĻ¨åŃ¦ä¹ł": 1948,
  "çī¹å¾ģ": 1949,
  "å¥½ï¼Į": 1950,
  "ä¸Ģç»Ħ": 1951,
  "çļĦåı¥åŃĲ": 1952,
  "æħ¢": 1953,
  "è·Ŀ": 1954,
  "\\n": 1955,
  "è£¤": 1956,
  "éĺ¿": 1957,
  "èģĮ": 1958,
  "å¸Ĥåľº": 1959,
  "ä»£è¡¨": 1960,
  "ĳæĪĺ": 1961,
  "æĳĺè¦ģ": 1962,
  "ä½ı": 1963,
  "åĵĪ": 1964,
  "åĨ¬": 1965,
  "de": 1966,
  "ãĢĤæĪĳä»¬": 1967,
  "æ£Ģ": 1968,
  "æµİ": 1969,
  "éģ¿åħį": 1970,
  "ä¹īè¯į": 1971,
  "çļĦæĥħæĦŁ": 1972,
  "oo": 1973,
  "ç¼ĸåĨĻ": 1974,
  "ï¼Įä¸º": 1975,
  "æ¸Ĳ": 1976,
  "im": 1977,
  "éģĩ": 1978,
  "à®": 1979,
  "3ä¸ª": 1980,
  "çľ¼": 1981,
  "åĪ©çĶ¨": 1982,
  "ç®¡çĲĨ": 1983,
  "åĨ·": 1984,
  "æ´²": 1985,
  "åıĮ": 1986,
  "2.": 1987,
  "æŁĶ": 1988,
  "âĢĶ": 1989,
  "ov": 1990,
  "ç»ľ": 1991,
  "æĻ®": 1992,
  "ä»·åĢ¼": 1993,
  "èĶ¬": 1994,
  ")Ġ": 1995,
  "æĪĳæĥ³": 1996,
  "ç»ıåħ¸": 1997,
  "Python": 1998,
  "ang": 1999,
  "æ´Ĺ": 2000,
  "TheĠ": 2001,
  "ag": 2002,
  "3.": 2003,
  "æ°ĶåĢĻ": 2004,
  "åĩĨç¡®": 2005,
  "çľĭåĪ°": 2006,
  "äº¤éĢļ": 2007,
  "çŃĶæ¡Īï¼ļ": 2008,
  "é¥Ń": 2009,
  "äºĨãĢĤ": 2010,
  "è¿Ļä¸ªéĹ®é¢ĺ": 2011,
  "áŀ": 2012,
  "çĶľ": 2013,
  "éĻ¢": 2014,
  "åľºæĻ¯": 2015,
  "æĿ¡ä»¶": 2016,
  "ç®±": 2017,
  "Ġ\"": 2018,
  "çŃĳ": 2019,
  "çĩ": 2020,
  "å·ŀ": 2021,
  "å¦Ĥä¸ĭ": 2022,
  "asĠ": 2023,
  "åĤ": 2024,
  "ç¬ĳ": 2025,
  "èĩªåĬ¨": 2026,
  "æĽ´å¥½åľ°": 2027,
  "çĪ±æĥħ": 2028,
  "éĩĩçĶ¨": 2029,
  "ä¼łç»Ł": 2030,
  "éķ¿åº¦": 2031,
  "çļĦæĸĩç«ł": 2032,
  "ç§ĺ": 2033,
  "200": 2034,
  "æİĴåºı": 2035,
  "ç»ıæµİ": 2036,
  "åĿļ": 2037,
  "éĶĢåĶ®": 2038,
  "éĵģ": 2039,
  "éĢīé¡¹": 2040,
  "è¡ĮæĺŁ": 2041,
  "çļĦæķħäºĭ": 2042,
  "ä»¥ä¸ĭæĸĩæľ¬": 2043,
  "åĪĿ": 2044,
  "å¹»": 2045,
  "åŁºäºİ": 2046,
  "æĢ§åĴĮ": 2047,
  "çī¹çĤ¹": 2048,
  "æŁĵ": 2049,
  "åĢĴ": 2050,
  "ç³ķ": 2051,
  "14": 2052,
  "ä¸²": 2053,
  "éĩİ": 2054,
  "çªģ": 2055,
  "è·³": 2056,
  "å»ºçŃĳ": 2057,
  "æĹ¶å°ļ": 2058,
  "ent": 2059,
  "å¥Ĺ": 2060,
  "éĶħ": 2061,
  "éĤ®": 2062,
  "et": 2063,
  "ãĢĤ-Ġ": 2064,
  "åıĺå¾Ĺ": 2065,
  "int(": 2066,
  "å·¥åħ·": 2067,
  "çļĦæĢ»": 2068,
  "çļĦçŁ": 2069,
  "ï¼ļ-Ġ": 2070,
  "æĿ¿": 2071,
  "åįĪ": 2072,
  "èĶ¬èıľ": 2073,
  "éĢı": 2074,
  "èĩªçĶ±": 2075,
  "ç¯ĩæĸĩç«ł": 2076,
  "éĢŁåº¦": 2077,
  "ä¸Ģåıª": 2078,
  "çīĽå¥¶": 2079,
  "è¯Ńæ³ķ": 2080,
  "éħ¸": 2081,
  "\"Ġ": 2082,
  "0.": 2083,
  "èį¯": 2084,
  "èĥľ": 2085,
  "ä¼¤": 2086,
  "us": 2087,
  "çīĻ": 2088,
  "åĬŀ": 2089,
  "æĶ¯æĮģ": 2090,
  "å°Ħ": 2091,
  "åĳ¼": 2092,
  "åĪĨç»Ļ": 2093,
  "ĠO": 2094,
  "é¢Ħæµĭ": 2095,
  "çļĦæĦŁ": 2096,
  "5ä¸ª": 2097,
  "åĪĽéĢł": 2098,
  "çļĦå¤©æ°Ķ": 2099,
  "ä¸ĭæĿ¥": 2100,
  "é¸¡èĽĭ": 2101,
  "ãĢĤæł¹æį®": 2102,
  "åĪ¤æĸŃ": 2103,
  "åĪĽä½ľ": 2104,
  "åį³åı¯": 2105,
  "ãĢĤĊç»Ļåĩº": 2106,
  "èĪ¬": 2107,
  "çĤĴ": 2108,
  "çī©åĵģ": 2109,
  "ä¸Ńå¿ĥ": 2110,
  "ç¥¨": 2111,
  "ä½³": 2112,
  "åĿĲ": 2113,
  "çļĦçĶµå½±": 2114,
  "çļĦæĸĩæľ¬": 2115,
  "çĽĸ": 2116,
  "åħĭåĬĽ": 2117,
  "æ°§": 2118,
  "æ¸©åº¦": 2119,
  "æķ°åŃ¦é¢ĺ": 2120,
  "å°ıåŃ¦": 2121,
  "èķ": 2122,
  "ç½ĳç»ľ": 2123,
  "å¯»æī¾": 2124,
  "å·§åħĭåĬĽ": 2125,
  "åį´": 2126,
  "ä»ĺ": 2127,
  "é¾Ļ": 2128,
  "åĪĹåĩº": 2129,
  "è®²è¿°": 2130,
  "deĠ": 2131,
  "ç´§": 2132,
  "è·Ŀç¦»": 2133,
  "å½ķ": 2134,
  "åħ°": 2135,
  "çļĦå°ı": 2136,
  "æĺ¯âĢľ": 2137,
  "è¿Ļåı¥è¯Ŀ": 2138,
  "1,Ġ": 2139,
  "æł¡": 2140,
  "åĲİï¼Į": 2141,
  "åį«": 2142,
  "ec": 2143,
  "æĬĺ": 2144,
  "æĭ¿": 2145,
  "æĸ¹ç¨ĭ": 2146,
  "æ½®": 2147,
  "æ±ģ": 2148,
  "ä¸°å¯Į": 2149,
  "å®ĥçļĦ": 2150,
  "ä¹Łåı¯ä»¥": 2151,
  "çº¢èī²": 2152,
  "æķ´ä¸ª": 2153,
  "åı«": 2154,
  "alĠ": 2155,
  "è¯Ħä»·": 2156,
  "è°¢è°¢": 2157,
  "åŃĲï¼Į": 2158,
  "èĻ½": 2159,
  "é¥°": 2160,
  "èĿ": 2161,
  "6.Ġ": 2162,
  "æĺ¯æĮĩ": 2163,
  "æİ¢ç´¢": 2164,
  "ä¼¦": 2165,
  "ig": 2166,
  "éĢĲ": 2167,
  "éĩĮï¼Į": 2168,
  "åħ¬å¼ı": 2169,
  "Ġ3": 2170,
  "ç¤¼": 2171,
  "è´Ńçī©": 2172,
  "ay": 2173,
  "æİ§åĪ¶": 2174,
  "åª": 2175,
  "ä¼ģ": 2176,
  "è¿Ļæ®µ": 2177,
  "çĽĬ": 2178,
  "çĽĺ": 2179,
  "éĩĮæľī": 2180,
  "åŃ£èĬĤ": 2181,
  "æĽ¿": 2182,
  "è®Ńç»ĥ": 2183,
  "ä¸Ģå®ļ": 2184,
  "çļĦç¬": 2185,
  "äºĨï¼Į": 2186,
  "çİ¯ä¿Ŀ": 2187,
  "ç¼ĸè¾ĳ": 2188,
  "çº³": 2189,
  "ç¼º": 2190,
  "ä¹³": 2191,
  "æ±½è½¦": 2192,
  "åĩ»": 2193,
  "å®ĩ": 2194,
  "è¿Ļç§į": 2195,
  "ati": 2196,
  "æĩ": 2197,
  "æ··": 2198,
  "éĽª": 2199,
  "ab": 2200,
  "ä¹Łæĺ¯": 2201,
  "éĥ¨çĶµå½±": 2202,
  "åİŁåĽł": 2203,
  "é¥¼": 2204,
  "å½¢æĪĲ": 2205,
  "ĠÃĹ": 2206,
  "åĽ°": 2207,
  "çĽĲ": 2208,
  "çŃīçŃīãĢĤ": 2209,
  "é¢ĳ": 2210,
  "æĥĬ": 2211,
  "ãĢĤéĤ£ä¹Ī": 2212,
  "çĨĬ": 2213,
  "èĦļ": 2214,
  "é¡»": 2215,
  "æĺ¯ä»Ģä¹Īï¼Ł": 2216,
  "ï¼Įè¿ĻäºĽ": 2217,
  "æĺ¯åľ¨": 2218,
  "ç¾¤": 2219,
  "çī©è´¨": 2220,
  "å³°": 2221,
  "åĪĨåĪ«": 2222,
  "é£Łåĵģ": 2223,
  "24": 2224,
  "åı£æĦŁ": 2225,
  "ä¸ºäºĨ": 2226,
  "äººæķ°": 2227,
  "æĸĩåŃ¦": 2228,
  "æīĭæľº": 2229,
  "éĴĪ": 2230,
  "åŃ©åŃĲ": 2231,
  "æ±ĩ": 2232,
  "éĹ²": 2233,
  "ãĢĤĊé¢ĺçĽ®": 2234,
  "æĿĥ": 2235,
  "æ·»åĬł": 2236,
  "ä¸Ģæ¬¡": 2237,
  "çħ®": 2238,
  "ç§»": 2239,
  "çķ¥": 2240,
  "br": 2241,
  "æ´ŀ": 2242,
  "çļĦæ°´": 2243,
  "å®½": 2244,
  "çĭ¬çī¹": 2245,
  "å°ıæĹ¶": 2246,
  "ãĢĤè¯¥": 2247,
  "è¯´æĺİ": 2248,
  "æ¯ıå¤©": 2249,
  "è°ģ": 2250,
  "lĠ": 2251,
  "ä¸įä¼ļ": 2252,
  "do": 2253,
  "åĪĽå»º": 2254,
  "çļĦåıĳå±ķ": 2255,
  "ç¿»è¯ĳæĪĲä¸Ńæĸĩ": 2256,
  "å¥¥": 2257,
  "ĠÃ·": 2258,
  "èĹ": 2259,
  "åĬĽåĴĮ": 2260,
  "çī¹åĪ«": 2261,
  "åĲ¸å¼ķ": 2262,
  "forĠ": 2263,
  "å½¢å¼ı": 2264,
  "èĻ½çĦ¶": 2265,
  "11": 2266,
  "å¨ģ": 2267,
  "60": 2268,
  "æľĢé«ĺ": 2269,
  "çĸĳ": 2270,
  "ä¸´": 2271,
  "æ¬¢è¿İ": 2272,
  "ï¼ļĠ": 2273,
  "æŃ¥éª¤": 2274,
  "éĥ½æľī": 2275,
  "ç±»åĪ«": 2276,
  "éļıçĿĢ": 2277,
  "ç»ĦæĪĲ": 2278,
  "app": 2279,
  "åħ³æ³¨": 2280,
  "å¾Ħ": 2281,
  "ãĢĤ4.Ġ": 2282,
  "å¯¹è¯Ŀ": 2283,
  "âĢĿï¼Į": 2284,
  "åĽłç´ł": 2285,
  "ä¸ĵä¸ļ": 2286,
  "æµĵ": 2287,
  "åĩī": 2288,
  "éĵ¶": 2289,
  "print(": 2290,
  "çĨŁ": 2291,
  "17": 2292,
  "æĢ»ç»ĵ": 2293,
  "ãĢĤæīĢä»¥": 2294,
  "ï¼Įæ¯ıä¸ª": 2295,
  "ä»ĸä»¬çļĦ": 2296,
  "æĸĩåŃĹ": 2297,
  "å½ĵåľ°": 2298,
  "æ¤Ĵ": 2299,
  "éĩįè¦ģçļĦ": 2300,
  "ut": 2301,
  "ç£": 2302,
  "çº¸": 2303,
  "çĶŁæĪĲåķĨåĵģ": 2304,
  "åı¯ä»¥éĢļè¿ĩ": 2305,
  "æŃ¢": 2306,
  "åı³": 2307,
  "ãĢĤé¦ĸåħĪ": 2308,
  "æĬķ": 2309,
  "ä¸įéĶĻ": 2310,
  "å¹¸": 2311,
  "ä¾Ŀ": 2312,
  "em": 2313,
  "çºª": 2314,
  "ãĢĤåĲĮæĹ¶ï¼Į": 2315,
  "ä»¤äºº": 2316,
  "æ²ī": 2317,
  "æĳĦ": 2318,
  "åĪĨåĪ°": 2319,
  "æĮĳæĪĺ": 2320,
  "ç¾İé£Ł": 2321,
  "å¸¸è§ģ": 2322,
  "æķĪæŀľ": 2323,
  "åŃĹç¬¦ä¸²": 2324,
  "di": 2325,
  "ç®ĢçŁŃ": 2326,
  "è¿·": 2327,
  "å·¦": 2328,
  "åŃ¤": 2329,
  "ä¸ºä»Ģä¹Ī": 2330,
  "å®¢æĪ·": 2331,
  "æĦıå¤§åĪ©": 2332,
  "çļĦéĩįè¦ģ": 2333,
  "op": 2334,
  "è½¬æį¢": 2335,
  "æĮģç»Ń": 2336,
  "ç¼ĵ": 2337,
  "å·¨": 2338,
  "æ¥¼": 2339,
  "è´ŁéĿ¢": 2340,
  "æĺ¨": 2341,
  "è¿Ļæł·": 2342,
  "åı£åĳ³": 2343,
  "æľ«": 2344,
  "çļĦçĪ": 2345,
  "13": 2346,
  "ç¾İåĳ³": 2347,
  "ãĢĤĊä»¥ä¸ĭæĺ¯ä¸Ģ": 2348,
  "è¢ĭ": 2349,
  "è¡¨æĺİ": 2350,
  "ç»Ŀ": 2351,
  "èĨ": 2352,
  "æĦī": 2353,
  "åıªæľī": 2354,
  "æĸ¹æ¡Ī": 2355,
  "åı¯ä»¥ä½¿çĶ¨": 2356,
  "åĪĽæĦı": 2357,
  "éģĵå°ıåŃ¦": 2358,
  "æĭŁ": 2359,
  "é¡ºåºı": 2360,
  "ç»Ħç»ĩ": 2361,
  "æĺİå¤©": 2362,
  "é¾Ħ": 2363,
  "éģĵå°ıåŃ¦æķ°åŃ¦é¢ĺ": 2364,
  "ä¸ĭï¼Į": 2365,
  "åŁºæľ¬": 2366,
  "èģļ": 2367,
  "æľīæķĪ": 2368,
  "çŁŃè¯Ń": 2369,
  "å¹³æĸ¹": 2370,
  "èĽĭç³ķ": 2371,
  "ãĢĤæľĢåĲİ": 2372,
  "çļĦæ°Ķ": 2373,
  "é¢Ĺç³ĸæŀľ": 2374,
  "ä¼´": 2375,
  "åı¯ä»¥åľ¨": 2376,
  "èĤ¤": 2377,
  "èĩªçĦ¶è¯Ńè¨Ģ": 2378,
  "çĶµè§Ĩ": 2379,
  "æ©ĻåŃĲ": 2380,
  "æķĻèĤ²": 2381,
  "å°Ĩåħ¶": 2382,
  "äºĭæĥħ": 2383,
  "æľµ": 2384,
  "é¥®é£Ł": 2385,
  "ãĢĤä½Ĩæĺ¯": 2386,
  "çļĦæı": 2387,
  "åıįåºĶ": 2388,
  "ãĢĤä¾ĭå¦Ĥ": 2389,
  "åľ°åĮº": 2390,
  "æĭĮ": 2391,
  "è´¢": 2392,
  "çł´": 2393,
  "æľĹ": 2394,
  "çļĦç³": 2395,
  "ä¸Ģå¤©": 2396,
  "æŃĮæĽ²": 2397,
  "ä¸įä»ħ": 2398,
  "éĤ®ä»¶": 2399,
  "åįļ": 2400,
  "ä¸Ģä½į": 2401,
  "2,Ġ": 2402,
  "åĨ³å®ļ": 2403,
  "xĠ=Ġ": 2404,
  "ä¸ĢæŃ¥": 2405,
  "ver": 2406,
  ")Ċ": 2407,
  "é©¶": 2408,
  "åĩºäºĨ": 2409,
  "æ¬§": 2410,
  "com": 2411,
  "å®ł": 2412,
  "ç»ıåİĨ": 2413,
  "å°ıæĺİæľī": 2414,
  "æĢ§çļĦ": 2415,
  "èĵĿèī²": 2416,
  "ãĢĤĊä»¥ä¸ĭæĺ¯ä¸Ģéģĵå°ıåŃ¦æķ°åŃ¦é¢ĺ": 2417,
  "ä¸¥": 2418,
  "od": 2419,
  "åıĤåĬł": 2420,
  "ä¸Ŀ": 2421,
  "ç»§": 2422,
  "èµĦæºĲ": 2423,
  "å®Ļ": 2424,
  "æĽ´å¤ļçļĦ": 2425,
  "åĮĢ": 2426,
  "çĶŁæĢģ": 2427,
  "ä½įäºİ": 2428,
  "å¿Ĺ": 2429,
  "æĲŃéħį": 2430,
  "ãĢģãĢĬ": 2431,
  "è®¾å¤ĩ": 2432,
  "çº½": 2433,
  "¹ģ": 2434,
  "åĸĿ": 2435,
  "è¡¡": 2436,
  "å®ĩå®Ļ": 2437,
  "èģĬ": 2438,
  "ï¼Įä»İèĢĮ": 2439,
  "çļĦæĸ¹æ³ķ": 2440,
  "çĿ¡": 2441,
  "çĽ¸ä¼¼": 2442,
  "æĶ¹åıĺ": 2443,
  "æĺ¯ï¼ļ": 2444,
  "èĳ±": 2445,
  "çĥĪ": 2446,
  "è§Ĵèī²": 2447,
  "æĺ¯å¤ļå°ĳ": 2448,
  "ï¼Įå®ĥä»¬": 2449,
  "çģ¯": 2450,
  "åĬª": 2451,
  "ãĢĤå¦ĤæŀľæĤ¨": 2452,
  "Ã©": 2453,
  "çļĦåºĶçĶ¨": 2454,
  "40": 2455,
  "âĢĿãĢĤ": 2456,
  "èĥ½åĲ¦": 2457,
  "ãĢĤå¦Ĥæŀľä½ł": 2458,
  "çļĦæ²": 2459,
  "éĻĪ": 2460,
  "os": 2461,
  "çļĦæĬĢ": 2462,
  "çī¹å®ļ": 2463,
  "æĶ¾æĿ¾": 2464,
  "å¤©ç©º": 2465,
  "æĲľ": 2466,
  "ä¹ħ": 2467,
  "ne": 2468,
  "é¥®æĸĻ": 2469,
  "¡èĲ": 2470,
  "çļĦæķ°éĩı": 2471,
  "é¡¿": 2472,
  "å®ŀéĻħ": 2473,
  "çĽ¸åĲĮ": 2474,
  "æĦŁè°¢": 2475,
  "ãĢĤĊæł¹æį®ç»Ļå®ļçļĦ": 2476,
  "ç¾İåħĥ": 2477,
  "ï¼ĮåĪĻ": 2478,
  "wi": 2479,
  "çŃīçŃī": 2480,
  "ä»¿": 2481,
  "æĭ¼": 2482,
  "çļĦä¸»è¦ģ": 2483,
  "è¿ĺåī©ä¸ĭ": 2484,
  "ãĢĤĊåľ¨": 2485,
  "æ³³": 2486,
  "æĸĩæľ¬ä¸Ń": 2487,
  "è¿Ļä¸ªåı¥åŃĲ": 2488,
  "çŁ¥è¯Ĩ": 2489,
  "å¤įæĿĤ": 2490,
  "ï¼ŁĊ": 2491,
  "æ±ī": 2492,
  "åĭĩ": 2493,
  "ï¼ļæĪĳ": 2494,
  "è¡Ģ": 2495,
  "åºĬ": 2496,
  "çĵ¶": 2497,
  "ãĢĤéĤ£": 2498,
  "åŁºç¡": 2499,
  "ä¸ĬéĿ¢": 2500,
  "å¿«ä¹Ĳ": 2501,
  "ĠOĠO": 2502,
  "å¿ħé¡»": 2503,
  "åŁºç¡Ģ": 2504,
  "çĶŁäº§": 2505,
  "æĶ¯éĵħç¬Ķ": 2506,
  "èľľ": 2507,
  "çĥ§": 2508,
  "æĬ½": 2509,
  "ï¼ģĊ": 2510,
  "ä»¥ä¸Ĭ": 2511,
  "ç»ª": 2512,
  "res": 2513,
  "æĵį": 2514,
  "å®łçī©": 2515,
  "åĮ»çĶŁ": 2516,
  "èµı": 2517,
  "åĵªä¸ª": 2518,
  "åĨĽ": 2519,
  "åĩºæĿ¥": 2520,
  "Ġ5": 2521,
  "çļĦæĶ": 2522,
  "æķĪçİĩ": 2523,
  "åı¯ä»¥å¸®åĬ©": 2524,
  "ä»į": 2525,
  "å¼Ģåıĳ": 2526,
  "è¯·éĹ®": 2527,
  "ç«¯": 2528,
  "æ°ĶåĢĻåıĺåĮĸ": 2529,
  "åķĬ": 2530,
  "ri": 2531,
  "å¹´é¾Ħ": 2532,
  "æ¶ī": 2533,
  "éĩıçļĦ": 2534,
  "èŃ": 2535,
  "ä¸»é¢ĺï¼ļ": 2536,
  "æļĹ": 2537,
  "Ġ|": 2538,
  "å¦Ī": 2539,
  "éļĲ": 2540,
  "åįı": 2541,
  "çİī": 2542,
  "æ°¸": 2543,
  "3,Ġ": 2544,
  "ä¼ģä¸ļ": 2545,
  "«èĲ¨": 2546,
  "ãĢĭãĢģãĢĬ": 2547,
  "ãĢĤåĽłæŃ¤": 2548,
  "é¡¹çĽ®": 2549,
  "åİļ": 2550,
  "éľ²": 2551,
  "¾çĹħ": 2552,
  "æ··åĲĪ": 2553,
  "åħ´è¶£": 2554,
  "åĢ¼å¾Ĺ": 2555,
  "ä¸ĸçķĮä¸Ĭ": 2556,
  "thĠ": 2557,
  "çļĦå¤§": 2558,
  "èĻļ": 2559,
  "Ø§": 2560,
  "æŃ£éĿ¢": 2561,
  "è¡Ĺ": 2562,
  "çļĦçĥ": 2563,
  "å¾Ĺåĩº": 2564,
  "èĮĦ": 2565,
  "åĨľ": 2566,
  "ç¤¾äº¤": 2567,
  "éĿ¢åĮħ": 2568,
  "çļĦçľ": 2569,
  "èĢĲ": 2570,
  "çº½çº¦": 2571,
  "ä¿ĥ": 2572,
  "èĪª": 2573,
  "äººçī©": 2574,
  "and": 2575,
  "åģľ": 2576,
  "æ»¡è¶³": 2577,
  "å¡Ķ": 2578,
  "pl": 2579,
  "æ±¤": 2580,
  "ç®ĢåįķçļĦ": 2581,
  "ç©ºæ°Ķ": 2582,
  "ãĢĤåı¦": 2583,
  "æ£®": 2584,
  "æĿ¥è¶Ĭ": 2585,
  "ãĢĤåħ¶": 2586,
  "ç§ĭå¤©": 2587,
  "æĦıä¹ī": 2588,
  "å¿ĥçĲĨ": 2589,
  "å¤«": 2590,
  "èĤ¡": 2591,
  "è¶ĬæĿ¥è¶Ĭ": 2592,
  "åĬ¨ä½ľ": 2593,
  "7.Ġ": 2594,
  "çĤ¼": 2595,
  "sh": 2596,
  "è¾£": 2597,
  "ä¸Ģåħ±æľī": 2598,
  "å¾Īå¥½": 2599,
  "åĵº": 2600,
  "åĳ³éģĵ": 2601,
  "æ£Ĵ": 2602,
  "å±Ģ": 2603,
  "è§ĤçĤ¹": 2604,
  "æī§": 2605,
  "ma": 2606,
  "å¥ĸ": 2607,
  "æ»ĳ": 2608,
  "çļĦä¸»é¢ĺ": 2609,
  "Ċ-Ġ": 2610,
  "è°±": 2611,
  "çķħ": 2612,
  "èĥ½æºĲ": 2613,
  "ç¬¦åĲĪ": 2614,
  "éĻ¤ä»¥": 2615,
  "è§īå¾Ĺ": 2616,
  "çļĦæµ·": 2617,
  "èĮĥåĽ´": 2618,
  "æ³¡": 2619,
  "çŃīäºİ": 2620,
  "ä¸ĭåĪĹ": 2621,
  "ç»§ç»Ń": 2622,
  "æ±Ł": 2623,
  "æ¹¿": 2624,
  "é»İ": 2625,
  "ĠÐ": 2626,
  "èģĶç³»": 2627,
  "çļĦç³ĸ": 2628,
  "è·Ł": 2629,
  "ï¼ĮæĪĳä»¬éľĢè¦ģ": 2630,
  "æ²»çĸĹ": 2631,
  "5,Ġ": 2632,
  "å¯Ł": 2633,
  "è¡£æľį": 2634,
  "çī©ä½ĵ": 2635,
  "æĦ¿": 2636,
  "è¾Ĩ": 2637,
  "æİī": 2638,
  "æĦŁè§ī": 2639,
  "ãĢĤè¯·éĹ®": 2640,
  "ä½Ľ": 2641,
  "åĶ±": 2642,
  "å¹´è½»": 2643,
  "ç»¿èī²": 2644,
  "èĥĮæĻ¯": 2645,
  "ç«¥": 2646,
  "æĿŁ": 2647,
  "èİĵ": 2648,
  "è´µ": 2649,
  "å»ºç«ĭ": 2650,
  "ç³»åĪĹ": 2651,
  "çĽ®åīį": 2652,
  "åİĺ": 2653,
  "éĽħ": 2654,
  "è¯»èĢħ": 2655,
  "ç¯®": 2656,
  "æĶ¾åħ¥": 2657,
  "å®¹æĺĵ": 2658,
  "åĺ": 2659,
  "ä¸ĢçĽ´": 2660,
  "è¶ĭ": 2661,
  "ç¹ģ": 2662,
  "âĢĿçļĦ": 2663,
  "æķĳ": 2664,
  "ï¼Įä½¿åħ¶": 2665,
  "å¿Ĩ": 2666,
  "åĸľæ¬¢çļĦ": 2667,
  "ä¹°äºĨ": 2668,
  "ä¼ĳéĹ²": 2669,
  "è¯įè¯Ń": 2670,
  "è¸": 2671,
  "åĮĸåŃ¦": 2672,
  "è®©æĪĳ": 2673,
  "ãĢĤæĢ»": 2674,
  "è¯įæ±ĩ": 2675,
  "2ä¸ª": 2676,
  "1å¹´": 2677,
  "æľĢå¤§": 2678,
  "èħ¿": 2679,
  "åħ³éĶ®è¯įï¼ļ": 2680,
  "æŀ¶": 2681,
  "æĬ¥éģĵ": 2682,
  "ä¸Ĭæµ·": 2683,
  "ï¼ĮæĪĳåı¯ä»¥": 2684,
  "ªæĸ½": 2685,
  "å¿«éĢŁ": 2686,
  "åģı": 2687,
  "å¤ıåŃ£": 2688,
  "åĬªåĬĽ": 2689,
  "åĪĽæĸ°": 2690,
  "our": 2691,
  "çļĦåįķè¯į": 2692,
  "æķ°ä¸º": 2693,
  "åĨĴ": 2694,
  "çī©çĲĨ": 2695,
  "åĵºä¹³": 2696,
  "èŃ¦": 2697,
  "ï¼Įåħ¶": 2698,
  "ä¾ĭåŃĲ": 2699,
  "æ¸ħæĻ": 2700,
  "è´£": 2701,
  "æµĭè¯ķ": 2702,
  "äºĭå®ŀ": 2703,
  "è´§": 2704,
  "åºľ": 2705,
  "èª": 2706,
  "å¤ļä¸ª": 2707,
  "æľīå¾Īå¤ļ": 2708,
  "æľīä¸Ģä¸ª": 2709,
  "åĲįè¯į": 2710,
  "çļĦæĮ": 2711,
  "ä»Ģä¹Īæĺ¯": 2712,
  "æĽ¾": 2713,
  "ï¼Įå°ıæĺİ": 2714,
  "å¿ĺ": 2715,
  "èĹı": 2716,
  "ï¼Įå°ı": 2717,
  "æ¶¦": 2718,
  "éº¦": 2719,
  "wor": 2720,
  "åĲĪéĢĤ": 2721,
  "æĲľç´¢": 2722,
  "æ£ĢæŁ¥": 2723,
  "ï¼ļåľ¨": 2724,
  "æĢĿèĢĥ": 2725,
  "çļĦè¯Ŀ": 2726,
  "ç½ĳç«Ļ": 2727,
  "æĹĭ": 2728,
  "æĶ¾åľ¨": 2729,
  "youĠ": 2730,
  "èķī": 2731,
  "åĩĢ": 2732,
  "çľģ": 2733,
  "æ¹ĸ": 2734,
  "ç¥ŀç§ĺ": 2735,
  "2å¹´": 2736,
  "åħ¬åı¸çļĦ": 2737,
  "åı¯ä»¥çĶ¨": 2738,
  "å¯Ĵ": 2739,
  "æ¸©æļĸ": 2740,
  "å¦Ļ": 2741,
  "ï¼Įè¯·éĹ®": 2742,
  "åĳĪ": 2743,
  "æľīä»Ģä¹Ī": 2744,
  "èµŀ": 2745,
  "éĵ¾": 2746,
  "é£İéĻ©": 2747,
  "åıĹæ¬¢è¿İ": 2748,
  "æ³ķè¯Ń": 2749,
  "èĩªçĦ¶è¯Ńè¨Ģå¤ĦçĲĨ": 2750,
  "æĤ¦": 2751,
  "ï¼Įè¦ģæ±Ĥ": 2752,
  "å¸ģ": 2753,
  "æ¡Į": 2754,
  "ç§ģ": 2755,
  "è¿Ķ": 2756,
  "çĸ¾çĹħ": 2757,
  "é¦Ļèķī": 2758,
  "ä¼ļè®®": 2759,
  "æĺŁæľŁ": 2760,
  "åŃ¦æł¡": 2761,
  "æµģè¡Į": 2762,
  "è®¢": 2763,
  "çĹĩ": 2764,
  "çĽĴ": 2765,
  "æ¶²": 2766,
  "..": 2767,
  "å²Ľ": 2768,
  "åĪļ": 2769,
  "æııè¿°ï¼ļ": 2770,
  "80": 2771,
  "çĦ¶èĢĮ": 2772,
  "æĥħèĬĤ": 2773,
  "ï¼Įå¯¹": 2774,
  "è¾ĵåħ¥ï¼ļ": 2775,
  "æ°Ķæ¸©": 2776,
  "è½¯ä»¶": 2777,
  "æ¸¸æ³³": 2778,
  "çļĦæĹ¶åĢĻ": 2779,
  "4.": 2780,
  "å·´é»İ": 2781,
  "çķª": 2782,
  "çļĦæŃĮ": 2783,
  ".\"": 2784,
  "éŃĶ": 2785,
  "ï¼ĮçĶ¨": 2786,
  "à¦": 2787,
  "éĢĶ": 2788,
  "åĬ±": 2789,
  "äººçĶŁ": 2790,
  "éĽ¶": 2791,
  "çļĦä»·æł¼": 2792,
  "å°Ĭ": 2793,
  "å¥³çĶŁ": 2794,
  "ï¼ĮéĤ£": 2795,
  "be": 2796,
  "çļĦæłĩ": 2797,
  "åªĴ": 2798,
  "æİĴåĪĹ": 2799,
  "ç¨³": 2800,
  "å¤ļç§į": 2801,
  "éĢĤå½ĵ": 2802,
  "çļĦçŃĶæ¡Ī": 2803,
  "ãĢĤèĢĮ": 2804,
  "èĢ³": 2805,
  "æĺ¨å¤©": 2806,
  "éĩĩåıĸ": 2807,
  "ç®Ģæ´ģ": 2808,
  "è¶ĭåĬ¿": 2809,
  "éĩįæĸ°": 2810,
  "åĿĩåĮĢ": 2811,
  "å®ĺ": 2812,
  "ä¸Ģæł·": 2813,
  "ç»ıéªĮ": 2814,
  "è¡¨éĿ¢": 2815,
  "éĿł": 2816,
  "entĠ": 2817,
  "æĬĢå·§": 2818,
  "çĶµèĦĳ": 2819,
  "æİ¥ä¸ĭæĿ¥": 2820,
  "æ¶īåıĬ": 2821,
  "éĶ»": 2822,
  "çĽĳ": 2823,
  "é¼ł": 2824,
  "åºĵ": 2825,
  "æĲħ": 2826,
  "wh": 2827,
  "ãĢĤ5.Ġ": 2828,
  "åĤ¨": 2829,
  "çĻ»": 2830,
  "é©¾": 2831,
  "åĪĨç±»ä¸º": 2832,
  "å§Ĩ": 2833,
  "ãĢĤå¥½çļĦï¼ĮæĪĳ": 2834,
  "Ð°": 2835,
  "ç»ĺ": 2836,
  "å¹¿åĳĬ": 2837,
  "éĢłæĪĲ": 2838,
  "åľ°çĤ¹": 2839,
  "éĶ»çĤ¼": 2840,
  "æĹı": 2841,
  "ï¼Įå¾ĹåĪ°": 2842,
  "è¡ĮåĬ¨": 2843,
  "ï¼ĮèĢĮä¸Ķ": 2844,
  "è®©äºº": 2845,
  "ç»ĥä¹ł": 2846,
  "ä¸ŃæľĢ": 2847,
  "æķ°çļĦ": 2848,
  "ãĢĤĊçĶŁæĪĲä¸Ģä¸ª": 2849,
  "åĬĽéĩı": 2850,
  "æ¸ħåįķ": 2851,
  "åģ¥èº«": 2852,
  "åĽ¢éĺŁ": 2853,
  "ç¼ĸç¨ĭ": 2854,
  "æ¬£": 2855,
  "ex": 2856,
  "éĨĴ": 2857,
  "ï¼ļ\"": 2858,
  "ç¥Ŀ": 2859,
  "åħ¶ä¸ŃçļĦ": 2860,
  "ed": 2861,
  "ĠÃĹĠ": 2862,
  "èĩ³å°ĳ": 2863,
  "åĵºä¹³åĬ¨çī©": 2864,
  "1/": 2865,
  "éģĹ": 2866,
  "å¦Ĥæŀľä½ł": 2867,
  "çļĦåľ°æĸ¹": 2868,
  "ï¼Įå¥¹": 2869,
  "å¹¸ç¦ı": 2870,
  "å¾ª": 2871,
  "æĺł": 2872,
  "æĵįä½ľ": 2873,
  "åĪĨæĪĲ": 2874,
  "è®¨è®º": 2875,
  "å½¢çļĦ": 2876,
  "å°º": 2877,
  "å®ļä¹ī": 2878,
  "æĤ¨éľĢè¦ģ": 2879,
  "å¼ºè°ĥ": 2880,
  "æķı": 2881,
  "ç¼©": 2882,
  "çĽ´åĪ°": 2883,
  "çĶ·çĶŁ": 2884,
  "éĩıåŃĲ": 2885,
  "èĳĹåĲįçļĦ": 2886,
  "éĻĦ": 2887,
  "è¿Ľè¡ĮåĪĨç±»": 2888,
  "ç»ĨèĬĤ": 2889,
  "è¶ħè¿ĩ": 2890,
  "å¹ħ": 2891,
  "æĹłè®º": 2892,
  "ï¼Įè¿Ļä¸ª": 2893,
  "æŃ»": 2894,
  "åİĺç±³": 2895,
  "enc": 2896,
  "æĸ¹åĲĳ": 2897,
  "æĲħæĭĮ": 2898,
  "é»Ħèī²": 2899,
  "åĳ¼åĲ¸": 2900,
  "str": 2901,
  "å¥ı": 2902,
  "æ±¡": 2903,
  "åħ¬éĩĮ": 2904,
  "æķ°æį®éĽĨ": 2905,
  "è¯Ĭ": 2906,
  "æł¸": 2907,
  "ä¸Ģæ¬¾": 2908,
  "é¡¾": 2909,
  "è½®": 2910,
  "æĺ¯çĶ±": 2911,
  "\",Ġ": 2912,
  "ï¼ĮĠ": 2913,
  "çŃīæĸ¹éĿ¢": 2914,
  "çıł": 2915,
  "åĲĮä¹īè¯į": 2916,
  "çļĦçĭ": 2917,
  "æıĲä¾Ľä¸Ģä¸ª": 2918,
  "æľĿ": 2919,
  "æİ¢è®¨": 2920,
  "èĲ¥åħ»": 2921,
  "çº¯": 2922,
  "fr": 2923,
  "ä¸īè§Ĵ": 2924,
  "çļĦæ³": 2925,
  "10ä¸ª": 2926,
  "è¿Ľä¸ĢæŃ¥": 2927,
  "åı¤è¯Ĺ": 2928,
  "çĵľ": 2929,
  "åĨ²": 2930,
  "keĠ": 2931,
  "çľł": 2932,
  "areĠ": 2933,
  "çļĦè¯ĹæŃĮ": 2934,
  "çļĦçĪ±": 2935,
  "é»ĳæ´ŀ": 2936,
  "åĲĹï¼Łå½ĵçĦ¶åı¯ä»¥": 2937,
  "ç§ĳå¹»": 2938,
  "ç±į": 2939,
  "çļĦæ®": 2940,
  "æ±ł": 2941,
  "å®«": 2942,
  "ãĢĤĊçĶŁæĪĲ": 2943,
  "e,Ġ": 2944,
  "å¤ªéĺ³ç³»": 2945,
  "éĴĪå¯¹": 2946,
  "äººï¼Į": 2947,
  "ä¸įåı¯": 2948,
  "åħ±åĲĮ": 2949,
  "Ch": 2950,
  "éĹ®é¢ĺãĢĤ": 2951,
  "ï¼Įä½łåı¯ä»¥": 2952,
  "id": 2953,
  "ï¼ĮæĤ¨åı¯ä»¥": 2954,
  "veĠ": 2955,
  "åŃ¤çĭ¬": 2956,
  "å°ģ": 2957,
  "çıį": 2958,
  "å°¾": 2959,
  "è¿ĩåİ»": 2960,
  "æĬ«èĲ¨": 2961,
  "la": 2962,
  "è¿Ļç¯ĩæĸĩç«ł": 2963,
  "æĢ§ãĢĤ": 2964,
  "çļĦæĥħåĨµ": 2965,
  "con": 2966,
  "åªĴä½ĵ": 2967,
  "çļĦçŁŃ": 2968,
  "æĬ¥åĳĬ": 2969,
  "å©ļ": 2970,
  "çĽ¸å¯¹": 2971,
  "æĹ¥æľ¬": 2972,
  "çĽĽ": 2973,
  "è´Ŀ": 2974,
  "ç»ıå¸¸": 2975,
  "ãĢĤĊç»ĻæĪĳ": 2976,
  "æĿ¥è¯´ï¼Į": 2977,
  "ä¸ĭæĸĩ": 2978,
  "è¡¨æł¼": 2979,
  "ç©ºéĹ´": 2980,
  "ç§Ģ": 2981,
  "uc": 2982,
  "çļĦç¤": 2983,
  "XX": 2984,
  "èĭı": 2985,
  "èļ": 2986,
  "æ¦Ĥæĭ¬": 2987,
  "æłĩåĩĨ": 2988,
  "æĸ¹ä¾¿": 2989,
  "æĺ¯ä¸Ģéĥ¨": 2990,
  "Ċæł¹æį®": 2991,
  "éĴ¢": 2992,
  "åľ¨ä¸Ģèµ·": 2993,
  "æľĢä½³": 2994,
  "æİªæĸ½": 2995,
  "ãĢĤè¿Ļç§į": 2996,
  "8.Ġ": 2997,
  "ä¿®æĶ¹": 2998,
  "ï¼Įä»¥ä¾¿": 2999,
  "å¼ķèµ·": 3000,
  "æķ£æŃ¥": 3001,
  "ï¼ĮçĶŁæĪĲ": 3002,
  "çļĦçł": 3003,
  "åį±": 3004,
  "åıĹåĪ°": 3005,
  "ç±»ä¼¼": 3006,
  "çĮ®": 3007,
  "åĽº": 3008,
  "é«ĺåº¦": 3009,
  "æĦŁåıĹåĪ°": 3010,
  "éĹª": 3011,
  "çļĦç³ĸæŀľ": 3012,
  "æľºä¼ļ": 3013,
  "è¿ĺåı¯ä»¥": 3014,
  "è½»æĿ¾": 3015,
  "ï¼ļå°ıæĺİæľī": 3016,
  "è¶³çĲĥ": 3017,
  "åĿ¦": 3018,
  "æłĩé¢ĺï¼ļ": 3019,
  "è¯¾": 3020,
  "éª¨": 3021,
  "èľĤ": 3022,
  "çļĦæĹ¶éĹ´": 3023,
  "çĶŁæĹ¥": 3024,
  "é£ĺ": 3025,
  "é¼ĵ": 3026,
  "åħŃ": 3027,
  "åĲ«ä¹ī": 3028,
  "çģ¾": 3029,
  "çķªèĮĦ": 3030,
  "à¥": 3031,
  "åį·": 3032,
  "æĤ£": 3033,
  "åĲ¹": 3034,
  "500": 3035,
  "90": 3036,
  "èĩªæĪĳ": 3037,
  "Ð¾": 3038,
  "æĽ¿æį¢": 3039,
  "åĪĨäº«": 3040,
  "ï¼Įå¤§": 3041,
  "äººå·¥æĻºèĥ½æĬĢæľ¯": 3042,
  "æĴŃ": 3043,
  "ãĤ": 3044,
  "åĪĨä¸º": 3045,
  "ç¿»è¯ĳæĪĲèĭ±æĸĩ": 3046,
  "æ·±åº¦": 3047,
  "çļĦæ´": 3048,
  "åĳĺå·¥": 3049,
  "çļĦæīĢ": 3050,
  "èĤĮ": 3051,
  "ãĢĤæĸĩæľ¬": 3052,
  "åİĭåĬĽ": 3053,
  "å®£": 3054,
  "æ¯Ĵ": 3055,
  "âĢĿåĴĮ": 3056,
  "åģĩè®¾": 3057,
  "ãĢĤå¥¹": 3058,
  "çĸ«": 3059,
  "æĻļä¸Ĭ": 3060,
  "ä¸Ģä¸ªäºº": 3061,
  "å¡«": 3062,
  "çļĦæĦıæĢĿ": 3063,
  "éļıæľº": 3064,
  "çļĦæ®µ": 3065,
  "çļĦæĳ": 3066,
  "åĲİçļĦ": 3067,
  "çļĦæĻ¯": 3068,
  "ç¬¬ä¸Ģ": 3069,
  "æĪ·å¤ĸ": 3070,
  "æ´¾": 3071,
  "çļĦæıı": 3072,
  "ä¼°": 3073,
  "çĹĽ": 3074,
  "åħĶ": 3075,
  "è°·": 3076,
  "æ¯ıä¸ªæľĭåıĭ": 3077,
  "é£ŁæĿĲ": 3078,
  "çİ°åľ¨è¯·ä½ł": 3079,
  "å·¦åı³": 3080,
  "è¡Įä¸ļ": 3081,
  "çļĦå»ºè®®": 3082,
  "èĸĦ": 3083,
  "æ³°": 3084,
  "æĭħ": 3085,
  "åĪĽå»ºä¸Ģä¸ª": 3086,
  "åİ»äºĨ": 3087,
  "è£Ļ": 3088,
  "å½¢å®¹": 3089,
  "ãĢĤç»ĻæĪĳ": 3090,
  "éĻĪè¿°": 3091,
  "è®ºæĸĩ": 3092,
  "éĩĮçļĦ": 3093,
  "for": 3094,
  "æĺ¥å¤©": 3095,
  "å£°éŁ³": 3096,
  "æģĲ": 3097,
  "ç»ŃåĨĻ": 3098,
  "å®Ī": 3099,
  "*Ġ": 3100,
  "äºĶä¸ª": 3101,
  "è¿ĶåĽŀ": 3102,
  "ãĢĤä»İ": 3103,
  "è°ĥæķ´": 3104,
  "åĪº": 3105,
  "æİĮ": 3106,
  "ï¼ĮåĨį": 3107,
  "åĹ": 3108,
  "æķ´æķ°": 3109,
  "ãĢĤĊæııè¿°": 3110,
  "çİ°è±¡": 3111,
  "ï¼Łå°ıæĺİ": 3112,
  "æµ·æ´ĭ": 3113,
  "æ°ı": 3114,
  "çļĦçģ": 3115,
  "4,Ġ": 3116,
  "éº»": 3117,
  "å¹³è¡¡": 3118,
  "çĦ¦": 3119,
  "æī¿": 3120,
  "ãĢĤĊä»İ": 3121,
  "çĽ´æİ¥": 3122,
  "çĬ¶æĢģ": 3123,
  "çļĦæ¯Ķ": 3124,
  "ä¹İ": 3125,
  "æļ´": 3126,
  "åĵ¥": 3127,
  "ï¼ĮæĪĸèĢħ": 3128,
  "ä¸ľè¥¿": 3129,
  "ĥåľ": 3130,
  "æ¸ħæĻ°": 3131,
  "å¢ŀå¼º": 3132,
  "åŀĥåľ": 3133,
  "åŀĥåľ¾": 3134,
  "å¼¹": 3135,
  "æıĲä¾ĽäºĨ": 3136,
  "è®¾è®¡ï¼Į": 3137,
  "Jo": 3138,
  "çļĦæĸ¹å¼ı": 3139,
  "æĪ¿éĹ´": 3140,
  "å¥³åŃ©": 3141,
  "èĥ½éĩı": 3142,
  "ä¸ĢèĪ¬": 3143,
  "èĭ¦": 3144,
  "å¹´çļĦ": 3145,
  "åĢĴåħ¥": 3146,
  "åĬłä¸Ĭ": 3147,
  "åģ¶": 3148,
  "ot": 3149,
  "è®©æĪĳä»¬": 3150,
  "çļĦæ®µèĲ½": 3151,
  "éĹ®é¢ĺï¼Į": 3152,
  "çĶŁæĪĲåķĨåĵģæĸĩæ¡Īï¼ļ": 3153,
  "éĩĳèŀį": 3154,
  "æª": 3155,
  "èī²å½©": 3156,
  "ä½łèĥ½": 3157,
  "å¹³åı°": 3158,
  "å®ľ": 3159,
  "ç¾İä¸½çļĦ": 3160,
  "dog": 3161,
  "ï¼ļè¿Ļ": 3162,
  "ç¢³": 3163,
  "4ä¸ª": 3164,
  "çĩĥ": 3165,
  "éĻįä½İ": 3166,
  "ãĢĤä¸į": 3167,
  "ï¼ĮåĽłä¸ºå®ĥ": 3168,
  "çĽ¸åĬł": 3169,
  "çļĦæīĢæľī": 3170,
  "æĸĹ": 3171,
  "èįīèİĵ": 3172,
  "éĢĲæ¸Ĳ": 3173,
  "2021å¹´": 3174,
  "éĢ»": 3175,
  "ä¸ºæĪĳ": 3176,
  "ï¼Įè¯¥": 3177,
  "æĢ»æĺ¯": 3178,
  "è°Ī": 3179,
  "æ³ķå¾ĭ": 3180,
  "æĢĢ": 3181,
  "åŃĲçļĦ": 3182,
  "éĢĤéĩı": 3183,
  "ä¹ĭåīį": 3184,
  "æµ·æ»©": 3185,
  "åħĥéĴ±": 3186,
  "æĿ¥èĩª": 3187,
  "çİ°å®ŀ": 3188,
  "åĨ³çŃĸ": 3189,
  "åı¯ä»¥è¢«": 3190,
  "çĤİ": 3191,
  "ãĢĤâĢľ": 3192,
  "Ðµ": 3193,
  "æĺ¯åĽłä¸º": 3194,
  "åĳ¨åĽ´": 3195,
  "æĹ©ä¸Ĭ": 3196,
  "æĸ°é²ľ": 3197,
  "åĬ©äºİ": 3198,
  "åĨĻä½ľ": 3199,
  "æĶ¿åºľ": 3200,
  "ç»ķ": 3201,
  "è¶³å¤Ł": 3202,
  "æĻ´": 3203,
  "âĦ": 3204,
  "çĪ½": 3205,
  "åĵªéĩĮ": 3206,
  "ä¹ĭä¸ĢãĢĤ": 3207,
  "ä¸ŃæıĲåıĸ": 3208,
  "æĦıåĳ³": 3209,
  "si": 3210,
  "å°½ç®¡": 3211,
  "æĬĹ": 3212,
  "æĶ¯ä»ĺ": 3213,
  "åľ°æĸ¹": 3214,
  "æĻ¯çĤ¹": 3215,
  "hĠ": 3216,
  "åįł": 3217,
  "ãĥ": 3218,
  "åĲ¯": 3219,
  "åĢį": 3220,
  "æıĲä¾ĽçļĦ": 3221,
  "ä¿ĥè¿Ľ": 3222,
  "ç§ĳåŃ¦å®¶": 3223,
  "æ¯ıä¸ªäºº": 3224,
  "åĨĻä¸Ģä¸ª": 3225,
  "èģĶç½ĳ": 3226,
  "âĢĿåĴĮâĢľ": 3227,
  "å®Įåħ¨": 3228,
  "ï¼Įå°±": 3229,
  "ï¼ĮæĪĳä¼ļ": 3230,
  "åĬ¨è¯į": 3231,
  "ãĢĤä»ĸä»¬": 3232,
  "ï¼Įè®©äºº": 3233,
  "1Ġ": 3234,
  "per": 3235,
  "æ±¡æŁĵ": 3236,
  "çĶ°": 3237,
  "45": 3238,
  "éĢ»è¾ĳ": 3239,
  "1æĹ¥": 3240,
  "åľ£": 3241,
  "å¤§åŃ¦": 3242,
  "æĭį": 3243,
  "æĬ±": 3244,
  "âĦĥ": 3245,
  "ãĢĤĊç»Ļå®ļä¸Ģä¸ª": 3246,
  "é¢ĦæĬ¥": 3247,
  "éĢĤåºĶ": 3248,
  "è£ħé¥°": 3249,
  "çļĦæ¦": 3250,
  "å¤§èĩªçĦ¶": 3251,
  "æ°´å¹³": 3252,
  "æľºåĻ¨äºº": 3253,
  "èĴľ": 3254,
  "è§ĦåĪĻ": 3255,
  "æĹ¨": 3256,
  "ç¾İå¥½çļĦ": 3257,
  "è¿½æ±Ĥ": 3258,
  "æĶ¹åĸĦ": 3259,
  "è§Ĩè§ī": 3260,
  "å®ģ": 3261,
  "æ¯«": 3262,
  "è¯ŃéŁ³": 3263,
  "çĽ¸äºĴ": 3264,
  "äººåĳĺ": 3265,
  "ä¹¦ç±į": 3266,
  "åĽ°éļ¾": 3267,
  "ãĢĤå½ĵçĦ¶": 3268,
  "ï¼ĮæľĢ": 3269,
  "æĿ°": 3270,
  "åĿı": 3271,
  "æ·±åĪ»": 3272,
  "âĢĶâĢĶ": 3273,
  "æĦıæĢĿ": 3274,
  "çĭ¬çī¹çļĦ": 3275,
  "çĶ²": 3276,
  "èĪ¹": 3277,
  "ç®Ģçº¦": 3278,
  "å¡ĳ": 3279,
  "ãĢĤçĦ¶åĲİ": 3280,
  "ä¸ĸçºª": 3281,
  "æĦıåĳ³çĿĢ": 3282,
  "åĲĪä½ľ": 3283,
  "ãĢģâĢľ": 3284,
  "Ġà¤": 3285,
  "éªĳ": 3286,
  "å¥ĭ": 3287,
  "ãĢĤä»¥ä¸ĭæĺ¯": 3288,
  "éĥģ": 3289,
  "end": 3290,
  "uĠ": 3291,
  "æĬĢèĥ½": 3292,
  "ear": 3293,
  "itĠ": 3294,
  "çŃ¾": 3295,
  "æµ®": 3296,
  "éĩįéĩı": 3297,
  "é»ĺ": 3298,
  "åīĤ": 3299,
  "ï¼ĮçĶŁæĪĲä¸Ģä¸ª": 3300,
  "çªĹ": 3301,
  "çļĦç¬¬": 3302,
  "å±ķç¤º": 3303,
  "è¯Ńè¨Ģæ¨¡åŀĭ": 3304,
  "æī¾åĩº": 3305,
  "çļĦçĶŁæ´»": 3306,
  "lyĠ": 3307,
  "æ¾": 3308,
  "èģĮä¸ļ": 3309,
  "çİĽ": 3310,
  "æĥ¯": 3311,
  "ç¾Ĭ": 3312,
  "ä¸»äºº": 3313,
  "ãĢĤå¥½çļĦï¼ĮéĤ£": 3314,
  "æ·ĭ": 3315,
  "æīĢæľīçļĦ": 3316,
  "å¥³æĢ§": 3317,
  "è®°å½ķ": 3318,
  "è½½": 3319,
  "æĮĩä»¤": 3320,
  "éģį": 3321,
  "ç¬¬ä¸Ģä¸ª": 3322,
  "éģĵå¾·": 3323,
  "åĽ½éĻħ": 3324,
  "28": 3325,
  "ç»ĵåĲĪ": 3326,
  "æľīäºĽ": 3327,
  "åĳĪçİ°": 3328,
  "å±ķçİ°": 3329,
  "æį·": 3330,
  "ä¸Ģåħ±": 3331,
  "par": 3332,
  "æ·¡": 3333,
  "ï¼ļ```": 3334,
  "çĶŁæĪĲï¼ļ": 3335,
  "æ·±åħ¥": 3336,
  "æ£®æŀĹ": 3337,
  "ç¡¬": 3338,
  "åħ·ä½ĵçļĦ": 3339,
  "èĦ±": 3340,
  "æĿĳ": 3341,
  "è¯ĬæĸŃ": 3342,
  "ä¸Ģæľ¬": 3343,
  "2022å¹´": 3344,
  "èĬĿ": 3345,
  "è¾¾åĪ°": 3346,
  "äººåĲį": 3347,
  "æıĲåĩº": 3348,
  "èĤ¯": 3349,
  "çļĦæ¦Ĥ": 3350,
  "æľīçĿĢ": 3351,
  "ÙĦ": 3352,
  "çĲĨè®º": 3353,
  "ä¸ºĠ": 3354,
  "çļĦæĭ": 3355,
  "äº¤æµģ": 3356,
  "çļĦæİ¨": 3357,
  "è¥¿çıŃ": 3358,
  "åģļåĩº": 3359,
  "è¥¿çıŃçīĻ": 3360,
  "èıľåįķ": 3361,
  "èĻ«": 3362,
  "ç»¼": 3363,
  "æľīè¶£çļĦ": 3364,
  "èĳ¡èĲ": 3365,
  "èĳ¡èĲĦ": 3366,
  "ï¼Įåı¯": 3367,
  "ï¼ĮéĢļå¸¸": 3368,
  "ãĢĤå°Ĩ": 3369,
  "çĥŁ": 3370,
  "9.Ġ": 3371,
  "èĩªè¡Į": 3372,
  "çļĦæııè¿°": 3373,
  "æĪĲéķ¿": 3374,
  "ä¸ªæĢ§": 3375,
  "åĮĸçļĦ": 3376,
  "est": 3377,
  "withĠ": 3378,
  "ï¼Įä½¿çĶ¨": 3379,
  "ãĢĤéĿŀå¸¸": 3380,
  "ä»Ķ": 3381,
  "ä¹¡": 3382,
  "etĠ": 3383,
  "æĺİç¡®": 3384,
  "èĴ¸": 3385,
  "5.": 3386,
  "çĴ": 3387,
  "é©¾é©¶": 3388,
  "å½ĵåīį": 3389,
  "ãĢĤåı¯ä»¥": 3390,
  "éĢĴ": 3391,
  "ï¼Įå¹¶åľ¨": 3392,
  "âĢĿãĢģâĢľ": 3393,
  "åħ«": 3394,
  "æıĲä¾Ľä¸ĢäºĽ": 3395,
  "elĠ": 3396,
  "å¿Ļ": 3397,
  "ç»Ļä½ł": 3398,
  "ãĢĤĊå°Ĩä»¥ä¸ĭ": 3399,
  "åıĺæĪĲ": 3400,
  "æ³ķåĽ½": 3401,
  "éŁ©": 3402,
  "æıĲåĪ°": 3403,
  "éľĩ": 3404,
  "æĺ¯æĪĳ": 3405,
  "ï¼Įèĥ½å¤Ł": 3406,
  "oc": 3407,
  "è¡¨è¾¾äºĨ": 3408,
  "æī§è¡Į": 3409,
  "å®ŀéªĮ": 3410,
  "åĩıåİ»": 3411,
  "à¯": 3412,
  "æģĴ": 3413,
  "æ¼Ķåĳĺ": 3414,
  "ï¼ļĊ1.Ġ": 3415,
  "ç¼ĸåĨĻä¸Ģä¸ª": 3416,
  "è¯º": 3417,
  "å¤§å°ı": 3418,
  "ãĢĤĊå¯¹": 3419,
  "ãĢĤåľ¨è¿Ļä¸ª": 3420,
  "æ²Ļæ»©": 3421,
  "å®¾": 3422,
  "ä¼½": 3423,
  "çĬ¯": 3424,
  "è¹": 3425,
  "ï¼īĊ": 3426,
  "èĥ¡": 3427,
  "ç©¿çĿĢ": 3428,
  "ãĢĤæĸĩç«ł": 3429,
  "èİ·åıĸ": 3430,
  "ãĢĤåı¦å¤ĸï¼Į": 3431,
  "è½¬æį¢ä¸º": 3432,
  "çļĦæ£": 3433,
  "è¡¥": 3434,
  "åĪ¶å®ļ": 3435,
  "çļĦæĦŁè§ī": 3436,
  "æı¡": 3437,
  "åı¯æĮģç»Ń": 3438,
  "éļľ": 3439,
  "æĽ´å¥½çļĦ": 3440,
  "ç»ıè¿ĩ": 3441,
  "łæª": 3442,
  "łæª¬": 3443,
  "å¢ŀéķ¿": 3444,
  "æľ¬æĸĩ": 3445,
  "çļĦéŁ³ä¹Ĳ": 3446,
  "ä¸įè¦ģ": 3447,
  "ï¼Įè¿Ļæł·": 3448,
  "ä¸¤ä¸ªåı¥åŃĲ": 3449,
  "ãĢĤçĦ¶èĢĮ": 3450,
  "åı¹": 3451,
  "ä½łåı¯ä»¥": 3452,
  "____": 3453,
  "ä¸ĢæĿ¡": 3454,
  "ãĢĤA": 3455,
  "Ġ=Ġ2": 3456,
  "åı¯çĪ±": 3457,
  "çļĦå¥½": 3458,
  "ç«ŀ": 3459,
  "å®ŀä½ĵ": 3460,
  "æ´Ľ": 3461,
  "é»ĳèī²": 3462,
  "ï¼ĮâĢľ": 3463,
  "è¯Ńåı¥": 3464,
  "ä¸»è¯Ń": 3465,
  "ç´«": 3466,
  "å£®": 3467,
  "è¿ª": 3468,
  "æ°§åĮĸ": 3469,
  "ff": 3470,
  "éķľ": 3471,
  "çļĦæīĭ": 3472,
  "ç¥ŀç»ı": 3473,
  "ãĢĤå°ıæĺİ": 3474,
  "ï¼ĮéĢļè¿ĩ": 3475,
  "æľīæīĢ": 3476,
  "owĠ": 3477,
  "å°Ĩä¼ļ": 3478,
  "ç¾İçļĦ": 3479,
  "Ġ=Ġ3": 3480,
  "è®©ä½ł": 3481,
  "çļĦæĢĿ": 3482,
  "æĥł": 3483,
  "åºĶçĶ¨ç¨ĭåºı": 3484,
  "å¹³åĿĩåĢ¼": 3485,
  "è¿ŀæİ¥": 3486,
  "ï¼ĮåĲĮæĹ¶ä¹Ł": 3487,
  "æĺ¯å¤ļå°ĳï¼Ł": 3488,
  "åľ¨å®¶": 3489,
  "çĶŁéķ¿": 3490,
  "å°ıæľĭåıĭ": 3491,
  "éĽ·": 3492,
  "è·ĳæŃ¥": 3493,
  "ãĢĤĊ2.Ġ": 3494,
  "ta": 3495,
  "æĹ§": 3496,
  "æ£ī": 3497,
  "çļĦé£Łçī©": 3498,
  "éĥ½ä¼ļ": 3499,
  "é¡¶": 3500,
  "èĽĭçĻ½": 3501,
  "åĮ»åŃ¦": 3502,
  "æĢ¥": 3503,
  "ownĠ": 3504,
  "wĠ": 3505,
  "no": 3506,
  "7,Ġ": 3507,
  "çº¹": 3508,
  "éĿ©": 3509,
  "æĹ¥å¸¸": 3510,
  "10.Ġ": 3511,
  "è¿ĻéĩĮ": 3512,
  "åİŁå§ĭ": 3513,
  "æµªæ¼«": 3514,
  "å¯¿": 3515,
  "å°ıçĭĹ": 3516,
  "åº¦åĴĮ": 3517,
  "'sĠ": 3518,
  "åıĸåĩº": 3519,
  "ãĢĤĊ3.Ġ": 3520,
  "çļĦæ¸©": 3521,
  "ãĢĤĊæł¹æį®ä»¥ä¸ĭ": 3522,
  "Joh": 3523,
  "è§¦": 3524,
  "èĦĤ": 3525,
  "å¸¸è§ģçļĦ": 3526,
  "å´": 3527,
  "å·¥ç¨ĭ": 3528,
  "ä¸¥éĩį": 3529,
  "ç»ĵè®º": 3530,
  "çĬ¬": 3531,
  "å¯¸": 3532,
  "ç§įç±»": 3533,
  "ï¼Įå°ıçº¢": 3534,
  "ĠÃ·Ġ": 3535,
  "åķĨä¸ļ": 3536,
  "æĺ¾ç¤º": 3537,
  "çļĦç©": 3538,
  "æģ¶": 3539,
  "oun": 3540,
  "list": 3541,
  "çİ©åħ·": 3542,
  ",000": 3543,
  "gr": 3544,
  "æįŁ": 3545,
  "éĿ¢æĸĻ": 3546,
  "çļĦä¸Ģä¸ª": 3547,
  "é¡µ": 3548,
  "åįĸ": 3549,
  "Ċè¯·": 3550,
  "ï¼Įåıª": 3551,
  "±ä¹Ĳ": 3552,
  "åĢ¾": 3553,
  "åĢŁ": 3554,
  "åĨĴéĻ©": 3555,
  "ãĢĤãĢĬ": 3556,
  "æŁĲä¸ª": 3557,
  "ä¸ĢåĲį": 3558,
  "1000": 3559,
  "ç»ĦåĲĪ": 3560,
  "igh": 3561,
  "åĵģè´¨": 3562,
  "ä»įçĦ¶": 3563,
  "ea": 3564,
  "çĽ¸åħ³çļĦ": 3565,
  "é«ĺåħ´": 3566,
  "æ¦Ĥå¿µ": 3567,
  "èĭ±åĽ½": 3568,
  "ä¸Ńæľī": 3569,
  "é«ĺçļĦ": 3570,
  "è¿Ľåħ¥": 3571,
  "èį·": 3572,
  "åł¡": 3573,
  "çīĽèĤī": 3574,
  "è¿Ļéĥ¨çĶµå½±": 3575,
  "ç¯®çĲĥ": 3576,
  "å½Ĵç±»": 3577,
  "Ð¸": 3578,
  "8,Ġ": 3579,
  "ľä¼½": 3580,
  "èĭ¥": 3581,
  "åĬłå¼º": 3582,
  "su": 3583,
  "ä¸»ä¹ī": 3584,
  "èĬ±è´¹": 3585,
  "çľŁæŃ£": 3586,
  "çĶµè¯Ŀ": 3587,
  "å¹ķ": 3588,
  "æŁĶè½¯": 3589,
  "éľĢè¦ģæ³¨æĦı": 3590,
  "ä¸ĢæĿ¯": 3591,
  "thatĠ": 3592,
  "ä¹łæĥ¯": 3593,
  "çļĦçłĶç©¶": 3594,
  "æŁłæª¬": 3595,
  "ä¹ĭä¸Ģï¼Į": 3596,
  "æĪĳåĸľæ¬¢": 3597,
  "è¡«": 3598,
  "ä¸Ģç¯ĩæĸĩç«ł": 3599,
  "æ½ľ": 3600,
  "ä¸ĭåįĪ": 3601,
  "åĪ¶éĢł": 3602,
  "ä¸Ģåı¥è¯Ŀ": 3603,
  "æŃ£ç¡®çļĦ": 3604,
  "å§ĵ": 3605,
  "çĪ¬": 3606,
  "è¢ĸ": 3607,
  "å±ĭ": 3608,
  "æĿ¥ï¼Į": 3609,
  "åıĳå¸ĥ": 3610,
  "èĢģå¸Ī": 3611,
  "gĠ": 3612,
  "è¿¹": 3613,
  "åŃĲãĢģ": 3614,
  "åīįå¾Ģ": 3615,
  "åĦ¿ç«¥": 3616,
  "åĴĮåħ¶ä»ĸ": 3617,
  "èĬ±åĽŃ": 3618,
  "åĬ³": 3619,
  "é¸£": 3620,
  "ç¨³å®ļ": 3621,
  "çļĦè¿ĩç¨ĭ": 3622,
  "sp": 3623,
  "è°ĥåĳ³": 3624,
  "åĵ¦": 3625,
  "æĹ¶åħī": 3626,
  "ç¾İå¥½": 3627,
  "æĪĲä¸ºäºĨ": 3628,
  "é½": 3629,
  ":Ġ\"": 3630,
  "å¾ªçİ¯": 3631,
  "åįģåĪĨ": 3632,
  "ell": 3633,
  "I-": 3634,
  "ç¬¬ä¸ī": 3635,
  "é¸Ń": 3636,
  "å½¢çĬ¶": 3637,
  "ç¿»è¯ĳæĪĲæ³ķè¯Ń": 3638,
  "ä¸ĥ": 3639,
  "åŁ¹": 3640,
  "æĳĩ": 3641,
  "æ¶Īè´¹": 3642,
  "ãĢĤæĤ¨": 3643,
  "æīĢéľĢ": 3644,
  "åĪĩæĪĲ": 3645,
  "æĦıè¯Ĩ": 3646,
  "çľĭèµ·æĿ¥": 3647,
  "åİ¨": 3648,
  "åĪĨéħį": 3649,
  "èªī": 3650,
  "me": 3651,
  "æĥħç»ª": 3652,
  "æ¨¡å¼ı": 3653,
  "ĠxĠ": 3654,
  "äº¿": 3655,
  "éķĩ": 3656,
  "æł·çļĦ": 3657,
  "ĠĠĠĠ": 3658,
  "çļĦæĬĢæľ¯": 3659,
  "å·Ŀ": 3660,
  "çĬ¶åĨµ": 3661,
  "çļĦéĢīæĭ©": 3662,
  "æĤ²": 3663,
  "çĶ·åŃ©": 3664,
  "ç»©": 3665,
  "åĪ°è¾¾": 3666,
  "ç»ĻäºĨ": 3667,
  "åłĤ": 3668,
  "ä¸Ģå®¶": 3669,
  "ç½ª": 3670,
  "ï¼ĮæľĢç»Ī": 3671,
  "åĩºèī²": 3672,
  "äºĴèģĶç½ĳ": 3673,
  "é£İæĻ¯": 3674,
  "çļĦåİĨåı²": 3675,
  "åĲĪçĲĨ": 3676,
  "åĨĻä¸Ģç¯ĩåħ³äºİ": 3677,
  "ation": 3678,
  "å«": 3679,
  "åĳ¨æľ«": 3680,
  "ä¸Ĭä¸ĭæĸĩ": 3681,
  "ï¼Įçİ°åľ¨": 3682,
  "ä¸ģ": 3683,
  "ep": 3684,
  "æĹ¢": 3685,
  "å¿ĥæĥħ": 3686,
  "æī£": 3687,
  "æķ°åĪĹ": 3688,
  "2ï¼ļ": 3689,
  "ĽåĽ´": 3690,
  "å½¼": 3691,
  "å°ıåįİ": 3692,
  "tur": 3693,
  "ä½ĵèĤ²": 3694,
  "å¼ºçĥĪ": 3695,
  "å¸¦æĿ¥äºĨ": 3696,
  "å°¤": 3697,
  "æķ¬": 3698,
  "æĮĩå®ļ": 3699,
  "ï¼Įè®¡ç®Ĺ": 3700,
  "æ¬£èµı": 3701,
  "æ®Ĭ": 3702,
  "åĽŀçŃĶä¸ĬéĿ¢": 3703,
  "åĽŀçŃĶä¸ĬéĿ¢çļĦéĹ®é¢ĺ": 3704,
  "ç¬¦åı·": 3705,
  "è°ĵ": 3706,
  "ä¼ĺç§Ģ": 3707,
  "ç»Ĵ": 3708,
  "æĪĲæľ¬": 3709,
  "åħ¬åħ±": 3710,
  "ï¼ĮæıĲé«ĺ": 3711,
  "ber": 3712,
  "ä¼ĺåĮĸ": 3713,
  "æĿ¥è®¡ç®Ĺ": 3714,
  "åĶĲ": 3715,
  "åºĶå¯¹": 3716,
  "ï¼Įäººä»¬": 3717,
  "ãĢĤåĽłä¸º": 3718,
  "ãĢĤäººå·¥æĻºèĥ½": 3719,
  "åıĤä¸İ": 3720,
  "åĨ¬åŃ£": 3721,
  "æŀĿ": 3722,
  "çĽ¸åºĶ": 3723,
  "å®Įæķ´": 3724,
  "ç»Ļå®ļçļĦæĸĩæľ¬": 3725,
  "çļĦç»ĵæŀľ": 3726,
  "åįļçī©": 3727,
  "åīª": 3728,
  "æĹ¶æľŁ": 3729,
  "1ï¼ļ": 3730,
  "çĲ´": 3731,
  "æĦīæĤ¦": 3732,
  "\\\\": 3733,
  "put": 3734,
  "åĲĥäºĨ": 3735,
  "åĵ²": 3736,
  "å¾ĹäºĨ": 3737,
  "ï¼ĮçĽ´åĪ°": 3738,
  "çļĦåĢ¼": 3739,
  "çĶ¨çļĦ": 3740,
  "ï¼ĮæĽ´": 3741,
  "æľīåĵªäºĽ": 3742,
  "æĸĩæ¡ĪçĶŁæĪĲï¼ļ": 3743,
  "è¯ļ": 3744,
  "',Ġ": 3745,
  "åıĺæļĸ": 3746,
  "çĪ¶": 3747,
  "å¤§æ°Ķ": 3748,
  "99": 3749,
  "çļĦæ¸¸": 3750,
  "çĽ®çļĦåľ°": 3751,
  "ä¼ĺè´¨": 3752,
  "çļĦæ¬": 3753,
  "å¤§éĩı": 3754,
  "çĶ³": 3755,
  "åĪĨåŃĲ": 3756,
  "æ¼Ĥ": 3757,
  "ï¼Įäººå·¥æĻºèĥ½": 3758,
  "#Ġ": 3759,
  "æĩĴ": 3760,
  "æĬķèµĦ": 3761,
  "é£ŀè¡Į": 3762,
  "å®¶äºº": 3763,
  "åºĨ": 3764,
  "æĶ¹è¿Ľ": 3765,
  "áĢ": 3766,
  "éĹŃ": 3767,
  "åľ¨çº¿": 3768,
  "æĸ°éĹ»æĬ¥éģĵ": 3769,
  "^2": 3770,
  "å¤ıæĹ¥": 3771,
  "```Ċ": 3772,
  "å°ıçĮ«": 3773,
  "æīĺ": 3774,
  "çľŁçļĦ": 3775,
  "éĺµ": 3776,
  "ç¬¬äºĮä¸ª": 3777,
  "estĠ": 3778,
  "éħĴåºĹ": 3779,
  "ç§»åĬ¨": 3780,
  "è¿ĽæŃ¥": 3781,
  "æŁ¥è¯¢": 3782,
  "èĩªè¡Įè½¦": 3783,
  "ç¢İ": 3784,
  "å¡ŀ": 3785,
  "èĲ¥éĶĢ": 3786,
  "å¹¶ä¸į": 3787,
  "çĭĲ": 3788,
  "è§Ĥä¼Ĺ": 3789,
  "è¯ĦåĪĨ": 3790,
  "çĭ¬ç«ĭ": 3791,
  "æľĢæĸ°": 3792,
  "æĭĤ": 3793,
  "ç²Ĵ": 3794,
  "èıľåĵģ": 3795,
  "æĶ¶åħ¥": 3796,
  "åı¯èĥ½æĺ¯": 3797,
  "è¿Ĳç®Ĺ": 3798,
  "æ¸ħæĸ°": 3799,
  "é«ĺæķĪ": 3800,
  "æģ©": 3801,
  "Ġ=Ġ5": 3802,
  "éĻĦè¿ĳ": 3803,
  "ä¹Łä¼ļ": 3804,
  "çĿĽ": 3805,
  "å¤ľæĻļ": 3806,
  "Ġä¸ª": 3807,
  "å¤ļæł·": 3808,
  "æīĵå¼Ģ": 3809,
  "çĽ¸ä¿¡": 3810,
  "çŃīé¢ĨåŁŁ": 3811,
  "ç£¨": 3812,
  "ãĢĤæľī": 3813,
  "æķ¢": 3814,
  "éļĶ": 3815,
  "éĻ¤æ³ķ": 3816,
  "çĭ¸": 3817,
  "å¤ªç©º": 3818,
  "è§£éĩĬä¸Ģä¸ĭ": 3819,
  "æµģçķħ": 3820,
  "è¿Ļä¸Ģ": 3821,
  "æķ°ãĢĤ": 3822,
  "ä»¿ä½Ľ": 3823,
  "çļĦåĨħå®¹": 3824,
  "åħħæ»¡äºĨ": 3825,
  "Ð½": 3826,
  "åĮºåŁŁ": 3827,
  "æĤł": 3828,
  "è¯Ħä¼°": 3829,
  "è¿Ļæĺ¯ä¸Ģä¸ª": 3830,
  "çļĦé¢ľèī²": 3831,
  "å®¶å±ħ": 3832,
  "éĿ¢ä¸´": 3833,
  "è´´": 3834,
  "xĠ+Ġ": 3835,
  "âĢ¦": 3836,
  "é¸¡èĤī": 3837,
  "èİ«": 3838,
  "æľºæŀĦ": 3839,
  "ç¤¾äº¤åªĴä½ĵ": 3840,
  "æ¡¥": 3841,
  "ç¨ĭåº¦": 3842,
  "é¢Ħç®Ĺ": 3843,
  "è§Ĥå¯Ł": 3844,
  "éĺ´": 3845,
  "python": 3846,
  "èĤ¥": 3847,
  "äºĭçī©": 3848,
  "æī©": 3849,
  "æĪĲåĪĨ": 3850,
  "arĠ": 3851,
  "ump": 3852,
  "ä¸Ģå¼ł": 3853,
  "æĦīå¿«": 3854,
  "çĺ": 3855,
  "ä¸Ĭåįĩ": 3856,
  "èĬ³": 3857,
  "ayĠ": 3858,
  "çļĦç¼": 3859,
  "6,Ġ": 3860,
  "æĭ¼åĨĻ": 3861,
  "æ¡£": 3862,
  "æİ¨èįĲä¸ĢäºĽ": 3863,
  "æľĢå¤§çļĦ": 3864,
  "çĤ¸": 3865,
  "è½»è½»": 3866,
  "ç»ĵæĿŁ": 3867,
  "çŁŃæĸĩ": 3868,
  "ãĢĤæĤ¨åı¯ä»¥": 3869,
  "éľľ": 3870,
  "æĹ¶ä»£": 3871,
  "ro": 3872,
  "æ²Ļæĭī": 3873,
  "åĬĽçļĦ": 3874,
  "æĺ¯çļĦï¼Į": 3875,
  "çĶŁåŃĺ": 3876,
  "ãĢĤå¯¹äºİ": 3877,
  "overĠ": 3878,
  "æĮ¥": 3879,
  "æİ¨çĲĨ": 3880,
  "è®¾ç½®": 3881,
  "åįļçī©é¦Ĩ": 3882,
  "çĶļ": 3883,
  "çļĦæ¼": 3884,
  "éĩįå¤į": 3885,
  "æŁĲäºĽ": 3886,
  "æĢ§èĥ½": 3887,
  "ant": 3888,
  "å¢Ļ": 3889,
  "ï¼īï¼Į": 3890,
  "Ċ2.Ġ": 3891,
  "çº·": 3892,
  "çļĦæĢ§": 3893,
  "åįķä½į": 3894,
  "çĪĨ": 3895,
  "æľīå¤ļå°ĳ": 3896,
  "åĶ¯": 3897,
  "éļĲç§ģ": 3898,
  "åĲĮåŃ¦": 3899,
  "æ¸ħæ´ģ": 3900,
  "çī¹æ®Ĭ": 3901,
  "',Ġ'": 3902,
  "åľ¨è¿Ļä¸ª": 3903,
  "å·²çŁ¥": 3904,
  "å¿ħè¦ģ": 3905,
  "æĿĢ": 3906,
  "åŁĥ": 3907,
  "è²": 3908,
  "ci": 3909,
  "ï¼Įä¸İ": 3910,
  "æĪĺäºī": 3911,
  "å°ıé¸Ł": 3912,
  "å¤ĸå¥Ĺ": 3913,
  "å¼ĢæĶ¾": 3914,
  "æĸĩæľ¬ä¸ŃçļĦ": 3915,
  "æķ°åĢ¼": 3916,
  "ãĢĤéĢļè¿ĩ": 3917,
  "a,Ġ": 3918,
  "åĨł": 3919,
  "23": 3920,
  "æĪĳä»¬åı¯ä»¥": 3921,
  "åı¤ä»£": 3922,
  "ÑĤ": 3923,
  "åºĶè¯¥æĺ¯": 3924,
  "çĶ¨æĿ¥": 3925,
  "éĺ¶": 3926,
  "NA": 3927,
  "èĺ": 3928,
  "çĳľä¼½": 3929,
  "çļĦæ´»": 3930,
  "ä¿Ŀè¯ģ": 3931,
  "chĠ": 3932,
  "åıĺéĩı": 3933,
  "åĴĮä¸Ģä¸ª": 3934,
  "çļĦç¥": 3935,
  "ç¢Ĺ": 3936,
  "è§Ī": 3937,
  "çªģçĦ¶": 3938,
  "ĠØ": 3939,
  "5åħĥ": 3940,
  "çĻ½èī²": 3941,
  "æĺŁçĲĥ": 3942,
  "å®¶çļĦ": 3943,
  "æ°Ķä½ĵ": 3944,
  "èģª": 3945,
  "ãĢĤèĻ½çĦ¶": 3946,
  "laĠ": 3947,
  "ãĢĤå»ºè®®": 3948,
  "è¿ĺéľĢè¦ģ": 3949,
  "ãĢĤåı¥åŃĲ": 3950,
  "isĠaĠ": 3951,
  "æĦıå¤§åĪ©éĿ¢": 3952,
  "èĥŀ": 3953,
  "è®¿": 3954,
  "çĶŁæĢģç³»ç»Ł": 3955,
  "ä¹Ŀ": 3956,
  "çī¹èī²": 3957,
  "ãĢĤçİ°åľ¨": 3958,
  "åİŁçĲĨ": 3959,
  "fo": 3960,
  "æī¬": 3961,
  "ans": 3962,
  "ï¼ĮéĿŀå¸¸": 3963,
  "ï¼Įå°Ĩåħ¶": 3964,
  "iz": 3965,
  "beĠ": 3966,
  "çļĦç¨": 3967,
  "æīĢåľ¨": 3968,
  "æ¡ĥ": 3969,
  "åĨħå¿ĥ": 3970,
  "éĿ¢å¯¹": 3971,
  "70": 3972,
  "è½¬åĮĸ": 3973,
  "ŁéĢļ": 3974,
  "ãĢĤĊç»Ļåĩºä¸Ģä¸ª": 3975,
  "è°ĥæŁ¥": 3976,
  "çĭĲçĭ¸": 3977,
  "cm": 3978,
  "èħĲ": 3979,
  "ç¿°": 3980,
  "çļĦå±±": 3981,
  "æĿ¥è§£åĨ³": 3982,
  "è§£åĨ³æĸ¹æ¡Ī": 3983,
  "ï¼Įæł¹æį®": 3984,
  "å¨±ä¹Ĳ": 3985,
  "å¦ĤæŃ¤": 3986,
  "èĦ¸": 3987,
  "çļĦç©º": 3988,
  "8.": 3989,
  "æĺ¯ä¸ŃåĽ½": 3990,
  "å®īæİĴ": 3991,
  "æĹ©é¤Ĳ": 3992,
  "ter": 3993,
  "é¼ĵåĬ±": 3994,
  "å¥¹çļĦ": 3995,
  "æ´ĭèĳ±": 3996,
  "6.": 3997,
  "çŀ": 3998,
  "åĲī": 3999,
  "æĺŁãĢģ": 4000,
  "çļĦåŁİå¸Ĥ": 4001,
  "ãĢĤè°¢è°¢": 4002,
  "å¼ĥ": 4003,
  "ÑĢ": 4004,
  "éħª": 4005,
  "å¯Ĩçłģ": 4006,
  "é£Łè°±": 4007,
  "è´£ä»»": 4008,
  "èį£": 4009,
  "èıĩ": 4010,
  "èĢħçļĦ": 4011,
  "è¿Ļä¸¤ä¸ª": 4012,
  "æľĢå¤ļ": 4013,
  "èĻİ": 4014,
  "sum": 4015,
  "åı¦ä¸Ģä¸ª": 4016,
  "å®Ŀå®Ŀ": 4017,
  "åľĪ": 4018,
  "åĬĽï¼Į": 4019,
  "æ·±åº¦åŃ¦ä¹ł": 4020,
  "æĻ¨": 4021,
  "çĨĬçĮ«": 4022,
  "å¸Ŀ": 4023,
  "æĤ¬": 4024,
  "æľĢå¥½çļĦ": 4025,
  "èĬĴ": 4026,
  "æľĪ1æĹ¥": 4027,
  "ä¸Ģéĥ¨": 4028,
  "å²¸": 4029,
  "ç¨İ": 4030,
  "è´¡": 4031,
  "æĮĩåĩº": 4032,
  "éĻĨ": 4033,
  "å¼łä¸ī": 4034,
  "æĶ»": 4035,
  "åıªæĺ¯": 4036,
  "è¿Ļé¦ĸ": 4037,
  "æıĲåįĩ": 4038,
  "çŃĸçķ¥": 4039,
  "åĲ«æľī": 4040,
  "è¡¨æ¼Ķ": 4041,
  "æľīåĬ©äºİ": 4042,
  "ickĠ": 4043,
  "çº¦ä¸º": 4044,
  "ä¸įçŁ¥éģĵ": 4045,
  "çļĦæ±": 4046,
  "æ°¸è¿ľ": 4047,
  "å½¢è±¡": 4048,
  "æķ¦": 4049,
  "ãĢĤä½łåı¯ä»¥": 4050,
  "/Ġ": 4051,
  "s,Ġ": 4052,
  "æĢ§ï¼Į": 4053,
  "ãĢĤçĶ±äºİ": 4054,
  "æĢ»ç»Ł": 4055,
  "ãĢĤæĪĳæĥ³": 4056,
  "åĲįç§°ï¼ļ": 4057,
  "å¹½": 4058,
  "èĤ´": 4059,
  "æĺ¯ä¸Ģä½į": 4060,
  "æĿĲè´¨": 4061,
  "Ċ3.Ġ": 4062,
  "ï¼Įä½¿å¾Ĺ": 4063,
  "ä¸Ĭæľī": 4064,
  "y,Ġ": 4065,
  "ï¼ĮåĬłåħ¥": 4066,
  "æĺİæĺ¾": 4067,
  "Sh": 4068,
  "au": 4069,
  "ä¾§": 4070,
  "åĳ¨éķ¿": 4071,
  "ãĢĤĊå¸®æĪĳ": 4072,
  "ThisĠ": 4073,
  "çļĦĠ": 4074,
  "çĮª": 4075,
  "è´¥": 4076,
  "çķĻä¸ĭ": 4077,
  "çļĦç²": 4078,
  "éģµ": 4079,
  "byĠ": 4080,
  "æĳĨ": 4081,
  "ï¼Įè¿ĺæľī": 4082,
  "éĨī": 4083,
  "åľ¨ä¸Ģä¸ª": 4084,
  "çŃĶæ¡Īæĺ¯": 4085,
  "èģªæĺİ": 4086,
  "äº¡": 4087,
  "çĥ¹": 4088,
  "ï¼Įæııè¿°": 4089,
  "ï¼ĮæĤ¨": 4090,
  "çļĦçĥŃ": 4091,
  "ä¸Ģéģĵ": 4092,
  "Â°": 4093,
  "åıįä¹īè¯į": 4094,
  "meĠ": 4095,
  "omĠ": 4096,
  "èı²": 4097,
  "æ¶Ĥ": 4098,
  "éģĩåĪ°": 4099,
  "hav": 4100,
  "ç®Ģè¦ģ": 4101,
  "èĢĢ": 4102,
  "æĪĳåı¯ä»¥": 4103,
  "çĭ®": 4104,
  "åıĬåħ¶": 4105,
  "ç²¾ç¥ŀ": 4106,
  "åįľ": 4107,
  "B:Ġ": 4108,
  "åĴª": 4109,
  "å§ĵåĲį": 4110,
  "èĿ¶": 4111,
  "åī©ä½Ļ": 4112,
  "åĵ²åŃ¦": 4113,
  "çº¦ç¿°": 4114,
  "ç§Ĵ": 4115,
  "çģ°": 4116,
  "è·ĥ": 4117,
  "oneĠ": 4118,
  "æľĢåĸľæ¬¢çļĦ": 4119,
  "éŁµ": 4120,
  "ç¤ºä¾ĭ": 4121,
  "ï¼Įéģ¿åħį": 4122,
  "æĩĤ": 4123,
  "éŃĶæ³ķ": 4124,
  "åħĶåŃĲ": 4125,
  "æİ¥åıĹ": 4126,
  "ï¼Įè¡¨ç¤º": 4127,
  "mĠ": 4128,
  "æĢĿæĥ³": 4129,
  "æĹłéĻĲ": 4130,
  "åĩºçĶŁ": 4131,
  "ä¸»è§Ĵ": 4132,
  "äºĨä¸Ģç§į": 4133,
  "æ½®æµģ": 4134,
  "è¥¿çıŃçīĻè¯Ń": 4135,
  "åĸľå¥½": 4136,
  "ï¼Įè®²è¿°": 4137,
  "æľªæĿ¥çļĦ": 4138,
  "çļĦåĲįåŃĹ": 4139,
  "è¿Ļæ¬¾": 4140,
  "æıĲåĪ°äºĨ": 4141,
  "ï¼Įä¹Łæĺ¯": 4142,
  "æ°ıåº¦": 4143,
  "ä½¿å¾Ĺ": 4144,
  "çļĦç½": 4145,
  "å¹´ï¼Į": 4146,
  "jump": 4147,
  "æĴĴ": 4148,
  "æķ°æĺ¯": 4149,
  "æĽ¼": 4150,
  "è´¡çĮ®": 4151,
  "çļĦçĭĹ": 4152,
  "åħ¨çĲĥåıĺæļĸ": 4153,
  "Ġ||Ġ": 4154,
  "çļĦæ·": 4155,
  "åī§æĥħ": 4156,
  "åºĶçĶ¨äºİ": 4157,
  "æ¨¡æĭŁ": 4158,
  "ä¸ŃãĢĤ": 4159,
  "ereĠ": 4160,
  "æ¤ħ": 4161,
  "åĵģå°Ŀ": 4162,
  "æħ§": 4163,
  "ĠA": 4164,
  "æĸ¤": 4165,
  "ï¼Įè¦ģ": 4166,
  "æŁ¥æī¾": 4167,
  "å¾®é£İ": 4168,
  "ï¼ŁâĢĿ": 4169,
  "è¢«è®¤ä¸º": 4170,
  "é¥¼å¹²": 4171,
  "ä¸ºä½ł": 4172,
  "éĻĲåĪ¶": 4173,
  "è¯¢éĹ®": 4174,
  "çļĦæĸ°": 4175,
  "ä¸Ģä»¶": 4176,
  "åĪĻæĺ¯": 4177,
  "åį§": 4178,
  "ä½ĵéĩį": 4179,
  "çļĦå°ıè¯´": 4180,
  "èĬĿå£«": 4181,
  "ello": 4182,
  "è¦Ĩ": 4183,
  "ķèī²": 4184,
  "ä¹ĺä»¥": 4185,
  "å®¤åĨħ": 4186,
  "çļĦæŀ": 4187,
  "æ»¡æĦı": 4188,
  "ld": 4189,
  "ãĢĤå¸ĮæľĽ": 4190,
  "å½¢å®¹è¯į": 4191,
  "æĳ©": 4192,
  "4Ġ": 4193,
  "ãĢĤä¾ĭå¦Ĥï¼Į": 4194,
  "å¼Ģå¤´": 4195,
  "äººæ°ĳ": 4196,
  "ä¹Ķ": 4197,
  "é¥ª": 4198,
  "é²¸": 4199,
  "å¯»æ±Ĥ": 4200,
  "åĿļæĮģ": 4201,
  "ï¼Įè¿Ļæĺ¯": 4202,
  "æ³¨éĩį": 4203,
  "çĶļèĩ³": 4204,
  "èĽĭçĻ½è´¨": 4205,
  "åĨħéĥ¨": 4206,
  "å°Ĩå®ĥä»¬": 4207,
  "èİİ": 4208,
  "æİ¨åĬ¨": 4209,
  "æķ´ä½ĵ": 4210,
  "éĢĢ": 4211,
  "çºł": 4212,
  "éĽĦ": 4213,
  "æ¢ħ": 4214,
  "zyĠ": 4215,
  "ob": 4216,
  "éĢĥ": 4217,
  "èĢį": 4218,
  "åľĨçļĦ": 4219,
  "èº«é«ĺ": 4220,
  "ï¼Įå»ºè®®": 4221,
  "è¾ĵåĩºç»ĵæŀľ": 4222,
  "1ä¸ª": 4223,
  "ä¸¤ç§į": 4224,
  "åıĤèĢĥ": 4225,
  "çī©çĲĨåŃ¦": 4226,
  "åĴĮæĸĩåĮĸ": 4227,
  "ï¼ļ1.": 4228,
  "çļĦæŃĮæĽ²": 4229,
  "ç»Ĩèĥŀ": 4230,
  "ak": 4231,
  "ldĠ": 4232,
  "çļĦæķ°æį®": 4233,
  "è¶ħå¸Ĥ": 4234,
  "è¡¬": 4235,
  "åĵģç§į": 4236,
  "9,Ġ": 4237,
  "æİ¥çĿĢ": 4238,
  "ï¼Įè®©æĪĳ": 4239,
  "èĤ¯å®ļ": 4240,
  "7.": 4241,
  "Ċå°Ĩ": 4242,
  "ãĢĤçŃĶæ¡Īï¼ļ": 4243,
  "overĠtheĠ": 4244,
  "éĻ¤äºĨ": 4245,
  "çĶ·å£«": 4246,
  "å¯Ĥ": 4247,
  "å¤§å®¶": 4248,
  "éĤ£äºĽ": 4249,
  "é£ŁçĶ¨": 4250,
  "åĸľæ¬¢åĲĥ": 4251,
  "æ·ĩ": 4252,
  "ï¼Įä»ĸæĥ³": 4253,
  "ï¼Įæ²¡æľī": 4254,
  "print(\"": 4255,
  "ä¸Ģå¹´": 4256,
  "ä¸ºæĤ¨æıĲä¾Ľ": 4257,
  "ãĢĤĊåĽŀçŃĶ": 4258,
  "çļĦæĥ³": 4259,
  "ev": 4260,
  "å¤ļå°ĳéĴ±": 4261,
  "èµ¢": 4262,
  "æĺĵäºİ": 4263,
  "è§Ĩé¢ĳ": 4264,
  "å®¶åħ·": 4265,
  "æĻĴ": 4266,
  "æ·ĩæ·ĭ": 4267,
  "åĪĢ": 4268,
  "ä¸º3": 4269,
  "å¹´ä»½": 4270,
  "ple": 4271,
  "x=": 4272,
  "Ñģ": 4273,
  "æĮĤ": 4274,
  "è§Ĵåº¦": 4275,
  "éĶĢåĶ®é¢Ŀ": 4276,
  "æľĢå¥½": 4277,
  "çĪ¸": 4278,
  "åĨ°æ·ĩæ·ĭ": 4279,
  "åĽ¾åĥı": 4280,
  "å®¶é¤Ĳåİħ": 4281,
  "-2": 4282,
  "rĠ": 4283,
  "à¹": 4284,
  "ãĢĤè¿Ļåı¥è¯Ŀ": 4285,
  "èĥ½ä¸įèĥ½": 4286,
  "åĬĽåŃ¦": 4287,
  "çħİ": 4288,
  "apple": 4289,
  "ï¼ļ3": 4290,
  "å¦Īå¦Ī": 4291,
  "75": 4292,
  "åĲĪéĢĤçļĦ": 4293,
  "brownĠ": 4294,
  "åŃĲéĩĮ": 4295,
  "å»¶": 4296,
  ")```": 4297,
  "æĮĩä»¤ï¼ļ": 4298,
  "-3": 4299,
  "å¼ķåĬĽ": 4300,
  "**": 4301,
  "ä½łå¥½": 4302,
  "å±ı": 4303,
  "åº¦è¿ĩ": 4304,
  "éŃħ": 4305,
  "çļĦè®¾è®¡": 4306,
  "è¿Ĳè¡Į": 4307,
  "ãĢĤæĢ»ä¹ĭ": 4308,
  "Ŀåįľ": 4309,
  "çļĦæ¯ı": 4310,
  "å¯¹æĸ¹": 4311,
  "çĪ±å¥½": 4312,
  "):": 4313,
  "æ°´ï¼Į": 4314,
  "èĤł": 4315,
  "åı¯ä»¥å¾ĹåĪ°": 4316,
  "çĦ¦èĻĳ": 4317,
  "çļĦæ¼Ķ": 4318,
  "éĩįåĨĻ": 4319,
  "è´¦": 4320,
  "ç¼ĵè§£": 4321,
  "\",Ġ\"": 4322,
  "æ¬²": 4323,
  "ä¸Ģæ®µæĸĩæľ¬": 4324,
  "quickĠ": 4325,
  "ĠOĠOĠOĠO": 4326,
  "åĴ¨": 4327,
  "çĶĺ": 4328,
  "çıĤ": 4329,
  "çļĦæ´»åĬ¨": 4330,
  "ä»Ļ": 4331,
  "tion": 4332,
  "åŃĲåĴĮ": 4333,
  "èħ»": 4334,
  "ä¼¯": 4335,
  "èĦī": 4336,
  "å¹¶ä¸Ķ": 4337,
  "æ¶µ": 4338,
  "ä¹Łå¾Ī": 4339,
  "éļ¾ä»¥": 4340,
  "è´¢åĬ¡": 4341,
  "åĮ¹": 4342,
  "ç¿»è¯ĳï¼ļ": 4343,
  "éļıæĹ¶": 4344,
  "çİ©èĢį": 4345,
  "äºĪ": 4346,
  "-1": 4347,
  "lazyĠ": 4348,
  "é¤Ĳé¦Ĩ": 4349,
  "è¢«ç§°": 4350,
  "èį¯çī©": 4351,
  "çĶµåŃĲéĤ®ä»¶": 4352,
  "äº«çĶ¨": 4353,
  "æķ£æĸĩ": 4354,
  "çļĦç¤¾": 4355,
  "çļĦäºĭæĥħ": 4356,
  "pĠ": 4357,
  "åĲĹï¼Łå½ĵçĦ¶": 4358,
  "ï¼Įå¸®åĬ©": 4359,
  "foxĠ": 4360,
  "èī¾": 4361,
  "çľĭçľĭ": 4362,
  "åĩºçļĦ": 4363,
  "å°¤åħ¶": 4364,
  "åĴ¨è¯¢": 4365,
  "èĥ¸": 4366,
  "äºĨè®¸å¤ļ": 4367,
  "åī¯": 4368,
  "å°ĺ": 4369,
  "ä¸Ģåľº": 4370,
  "é¸Łç±»": 4371,
  "å§¿": 4372,
  "èĻļæĭŁ": 4373,
  "åĪĨå¸ĥ": 4374,
  "ä»ĭç»įä¸Ģä¸ĭ": 4375,
  "ationĠ": 4376,
  "å¦Ĥä½ķåĪ¶ä½ľ": 4377,
  "çļĦæĦıä¹ī": 4378,
  "æľŁéĹ´": 4379,
  "ä¼Ĭ": 4380,
  "æī¹": 4381,
  "por": 4382,
  "åıĺå¾ĹæĽ´åĬł": 4383,
  "likeĠ": 4384,
  "æĪ´": 4385,
  "ãĢĤå®ĥä»¬": 4386,
  "æİĮæı¡": 4387,
  "anc": 4388,
  "ï¼Įå½ĵ": 4389,
  "èį¡": 4390,
  "æıĲç¤º": 4391,
  "6ä¸ª": 4392,
  "çļĦé£İæł¼": 4393,
  "çļĦè¯Ńè¨Ģ": 4394,
  "quickĠbrownĠ": 4395,
  "lazyĠdog": 4396,
  "ä¸ŃæĢ§": 4397,
  "ä¹Łæľī": 4398,
  "æĢ»åħ±": 4399,
  "èĬ¬": 4400,
  "åĩıè½»": 4401,
  "foxĠjump": 4402,
  "ï¼ļ2": 4403,
  "é¦¨": 4404,
  "myĠ": 4405,
  "è§ĦåĪĴ": 4406,
  "åº¦åģĩ": 4407,
  "å¿ĥçģµ": 4408,
  "è¿Ļæ®µæĸĩæľ¬": 4409,
  "ä¼Ł": 4410,
  "äºĴåĬ¨": 4411,
  "AIè¯Ńè¨Ģæ¨¡åŀĭ": 4412,
  "ä¼¦æķ¦": 4413,
  "å®ļæľŁ": 4414,
  "ä¸ĭéĽ¨": 4415,
  "overĠtheĠlazyĠdog": 4416,
  "åĽ¾æ¡Ī": 4417,
  "éĩĮéĿ¢": 4418,
  "èİ±": 4419,
  "åºıåĪĹ": 4420,
  "æĽ¾ç»ı": 4421,
  "èī¯å¥½çļĦ": 4422,
  "èħ°": 4423,
  "è¿Ļæĺ¯": 4424,
  "ï¼ļãĢĬ": 4425,
  "åĽĽä¸ª": 4426,
  "çļĦçī¹çĤ¹": 4427,
  "çļĦæĻº": 4428,
  "å¸½": 4429,
  "çŃīï¼Į": 4430,
  "ä»ĭç»įäºĨ": 4431,
  "quickĠbrownĠfoxĠjump": 4432,
  "è´¹çĶ¨": 4433,
  "bu": 4434,
  "ä¹ĭå¤Ħ": 4435,
  "ange": 4436,
  "å¾ĹåĪ°äºĨ": 4437,
  "åŃĺåĤ¨": 4438,
  "amĠ": 4439,
  "ãĢĤæ¯Ķå¦Ĥ": 4440,
  "å¦ĤæŀľæĤ¨": 4441,
  "ãĢĤå¥½çļĦï¼Įè¯·": 4442,
  "çļĦæĮĩ": 4443,
  "(\"": 4444,
  "s.": 4445,
  "çļĦä¼ĺ": 4446,
  "çļ®èĤ¤": 4447,
  "åĴĮå°ıçº¢": 4448,
  "å·®å¼Ĥ": 4449,
  "çŃīå¾ħ": 4450,
  "èĢĹ": 4451,
  "æĲº": 4452,
  "ï¼ĮèĢĮä¸įæĺ¯": 4453,
  "Ùħ": 4454,
  "è¿ħ": 4455,
  "æĸľ": 4456,
  "Ġ$": 4457,
  "åİŁæĿ¥": 4458,
  "çļĦåħ³éĶ®": 4459,
  "åıĹæ¬¢è¿İçļĦ": 4460,
  "å·¥èīº": 4461,
  "ãĢĤä½ľä¸º": 4462,
  "çļĦæŃ¥": 4463,
  "åľ¨åĮ»çĸĹ": 4464,
  "åľŁè±Ĩ": 4465,
  "ï¼Įä»¥ç¡®ä¿Ŀ": 4466,
  "çīĽä»Ķ": 4467,
  "çĳ°": 4468,
  "åľ¨äºİ": 4469,
  "æµ´": 4470,
  "æľªçŁ¥": 4471,
  "èĺĳ": 4472,
  "ãĢĤåħ¶æ¬¡": 4473,
  "çĮİ": 4474,
  "äººç±»çļĦ": 4475,
  "èıľèĤ´": 4476,
  "æĢķ": 4477,
  "èĺĳèıĩ": 4478,
  "å¸¸å¸¸": 4479,
  "ï¼ĮæĪĳæĥ³": 4480,
  "æİĴæĶ¾": 4481,
  "åĩıæ³ķ": 4482,
  "åħĥï¼Į": 4483,
  "çľĭçĶµå½±": 4484,
  "çļĦéĴ±": 4485,
  "éĵ¶è¡Į": 4486,
  "Â²": 4487,
  "åŁºåĽł": 4488,
  "å¢¨": 4489,
  "ç»Łè®¡": 4490,
  "èĥ¡æ¤Ĵ": 4491,
  "åĭĴ": 4492,
  "å½Ĵç±»ä¸º": 4493,
  "TheĠquickĠbrownĠfoxĠjump": 4494,
  "e.": 4495,
  "Ã¡": 4496,
  "å°Ĭéĩį": 4497,
  "åĵĪåĪ©": 4498,
  "ĠB": 4499,
  "çļĦå¤©": 4500,
  "éĤ£ä¸ª": 4501,
  "æĹ¶åĪ»": 4502,
  "æĶ¿çŃĸ": 4503,
  "çļĦèĬ±": 4504,
  "input": 4505,
  "Ph": 4506,
  "å®¡": 4507,
  "åıĤæķ°": 4508,
  "çļĦæĳĺè¦ģ": 4509,
  "ï¼Įä¹Łåı¯ä»¥": 4510,
  "åĨĻä¸Ģé¦ĸ": 4511,
  "ÃĹ": 4512,
  "çļĦçİ¯å¢ĥ": 4513,
  "è¯Ńæ³ķéĶĻè¯¯": 4514,
  "åĬŀåħ¬": 4515,
  "é³": 4516,
  "ãĢĤĊå°ıæĺİ": 4517,
  "æ®µæĸĩæľ¬": 4518,
  "èģĬå¤©": 4519,
  "æ©ĺ": 4520,
  "è¯ģæĺİ": 4521,
  "çĩķ": 4522,
  "æĿ¥æºĲ": 4523,
  "çº½çº¦å¸Ĥ": 4524,
  "haveĠ": 4525,
  "æ»ļ": 4526,
  "åĪ·": 4527,
  "Ħæ¦": 4528,
  "ä¼¼ä¹İ": 4529,
  "áŁ": 4530,
  "åįĬå¾Ħ": 4531,
  "çļĦãĢĬ": 4532,
  "çļĦçĪ±æĥħ": 4533,
  "Ħæ¦Ħ": 4534,
  "ä¸º2": 4535,
  "æįķ": 4536,
  "çĶŁç´ł": 4537,
  "å¿§": 4538,
  "çī©ç§į": 4539,
  "æıĴ": 4540,
  "ä¼ĳæģ¯": 4541,
  "çľŁå®ŀ": 4542,
  "éĤ£éĩĮ": 4543,
  "åĲĽ": 4544,
  "å¥½çľĭ": 4545,
  "In": 4546,
  "ç§Ł": 4547,
  "åıĳæĺİ": 4548,
  "åĲ¬èµ·æĿ¥": 4549,
  "çĥ¤ç®±": 4550,
  "2Ġ": 4551,
  "çļĦçĮ": 4552,
  "ï¼īãĢĤ": 4553,
  "ind": 4554,
  "åĲĦä¸ª": 4555,
  "é¹ħ": 4556,
  "çļĦç¾İå¥½": 4557,
  "ä¼łè¾¾": 4558,
  "å¼±": 4559,
  "çģŃ": 4560,
  "åıĸåĨ³": 4561,
  "äººåľ¨": 4562,
  "çļĦéķ¿åº¦": 4563,
  "åıĸåĨ³äºİ": 4564,
  "äººåı£": 4565,
  "æĭĶ": 4566,
  "çļĦåĬ¨çī©": 4567,
  "å½¼æŃ¤": 4568,
  ",O": 4569,
  "çĸĳéĹ®": 4570,
  "æĪĳä»¬éľĢè¦ģ": 4571,
  "ä¸ŃéĢīæĭ©": 4572,
  "ãĢĤĊ4.Ġ": 4573,
  "è¯¾ç¨ĭ": 4574,
  "ä¸°å¯ĮçļĦ": 4575,
  "çļĦæ¸¸æĪı": 4576,
  "ï¼ļ'": 4577,
  "ateĠ": 4578,
  "éħįæĸĻ": 4579,
  "ï¼ļ1": 4580,
  "å¡ĳæĸĻ": 4581,
  "çļĦä½įç½®": 4582,
  "éĢĬ": 4583,
  "æµ·è¾¹": 4584,
  "ï¼Ł1.Ġ": 4585,
  "ä¹ı": 4586,
  "åĿĢ": 4587,
  "åĽ¾ä¹¦": 4588,
  "ç¨į": 4589,
  "åĬłæ³ķ": 4590,
  "inĠtheĠ": 4591,
  "éĵº": 4592,
  "è®°å¿Ĩ": 4593,
  "æıĲéĨĴ": 4594,
  "åħ´å¥ĭ": 4595,
  "ç¿ħ": 4596,
  "ï¼Įåħ·æľī": 4597,
  "è§Ħå®ļ": 4598,
  "å®ģéĿĻ": 4599,
  "åıĬæĹ¶": 4600,
  "ç¤¼çī©": 4601,
  "çļĦç¾İä¸½": 4602,
  "ãĢĤæŃ¤å¤ĸ": 4603,
  "é»ĳæļĹ": 4604,
  "ãĢĤå°ı": 4605,
  "çļĦï¼Ł": 4606,
  "ï¼Įè¿Ļç§į": 4607,
  "ç¤¾åĮº": 4608,
  "å¯¼æ¼Ķ": 4609,
  "icĠ": 4610,
  "è¡Įé©¶": 4611,
  "ÙĬ": 4612,
  "åĪł": 4613,
  "ä¹ĭåĲİ": 4614,
  "çļĦæŃ£": 4615,
  "ãĢĭï¼Ī": 4616,
  "199": 4617,
  "ï¼ĮæľĢåĲİ": 4618,
  "èİ·å¾ĹäºĨ": 4619,
  "åį«çĶŁ": 4620,
  "èĦĨ": 4621,
  "è¿ĩç¨ĭä¸Ń": 4622,
  "ÙĨ": 4623,
  "åĽŀå®¶": 4624,
  "Ã·": 4625,
  "ä»°": 4626,
  "è¿Ļæĺ¯ä¸Ģ": 4627,
  "ä¹°äºĨä¸Ģ": 4628,
  "éĩĳå±ŀ": 4629,
  "ï¼Įå¯¼èĩ´": 4630,
  "ful": 4631,
  "çļĦåħī": 4632,
  "ä¸Ģçīĩ": 4633,
  "ãĢĤĊå°Ĩä»¥ä¸ĭåı¥åŃĲ": 4634,
  "çģ¾å®³": 4635,
  "ä¿Ŀåģ¥": 4636,
  "æŁľ": 4637,
  "å¹¶æ²¡æľī": 4638,
  "æııç»ĺ": 4639,
  "ï¼Īå¦Ĥ": 4640,
  "ï¼Įäº«åıĹ": 4641,
  "ï¼Įä¸Ģä¸ª": 4642,
  "èĤ¡ç¥¨": 4643,
  "çĶ¨åĵģ": 4644,
  "çĭĤ": 4645,
  "ãĢĤå¥½çļĦï¼ĮéĤ£ä¹Ī": 4646,
  "çļĦä¸»": 4647,
  "çļĦä¹¦": 4648,
  ">Ġ": 4649,
  "9.": 4650,
  "()": 4651,
  "ä»£åħ¥": 4652,
  "5Ġ": 4653,
  "çº¤": 4654,
  "âĢĿæĺ¯": 4655,
  "æ²¿": 4656,
  "å®½æĿ¾": 4657,
  "è²Į": 4658,
  "å¼Ł": 4659,
  "2Ġ=Ġ": 4660,
  "è·µ": 4661,
  "æĭĽ": 4662,
  "çļĦå·¥ä½ľ": 4663,
  "è§Ħå¾ĭ": 4664,
  "çİ»": 4665,
  "ï¼Įç»Ļ": 4666,
  "å¹³åĿĩåĪĨç»Ļ": 4667,
  "å§ľ": 4668,
  "æĹ¶éĹ´åĴĮ": 4669,
  "ure": 4670,
  "åĲĹï¼ŁĊ": 4671,
  "è¸ª": 4672,
  "æĶ¯ç¬Ķ": 4673,
  "ç¦»å¼Ģ": 4674,
  "åĪºæ¿Ģ": 4675,
  "èĮ¨": 4676,
  "(x": 4677,
  "æĸ¹ç¨ĭå¼ı": 4678,
  "áĥ": 4679,
  "antĠ": 4680,
  "çĳŀ": 4681,
  "æħ¢æħ¢": 4682,
  "ï¼ļå°Ĩ": 4683,
  "ç«ŀäºī": 4684,
  "å¥¶éħª": 4685,
  "èĸ¯": 4686,
  "æĪĲç»©": 4687,
  "æµ¸": 4688,
  "éĻ¶": 4689,
  "ban": 4690,
  "èıĮ": 4691,
  "ofĠtheĠ": 4692,
  "æĢĿç»´": 4693,
  "åĲ§ãĢĤ": 4694,
  "éĢıæ°Ķ": 4695,
  "ä¹Ļ": 4696,
  "å¤¹": 4697,
  "ä¿Ŀæļĸ": 4698,
  "150": 4699,
  "åŃĹæ¯įé¡ºåºı": 4700,
  "èĿ´": 4701,
  "åıĳæĮ¥": 4702,
  "å¦Ĩ": 4703,
  "æŁ¥çľĭ": 4704,
  "åĪĹä¸¾": 4705,
  "å¦¹": 4706,
  "ç«¹": 4707,
  "åĭĩæķ¢": 4708,
  "åĽŀå¿Ĩ": 4709,
  "æĤ£èĢħ": 4710,
  "ãĢĤä¸įè¿ĩ": 4711,
  "sĠoverĠtheĠlazyĠdog": 4712,
  "èĿ´èĿ¶": 4713,
  "éĩĳé¢Ŀ": 4714,
  "all": 4715,
  "èī³": 4716,
  "åĸľçĪ±": 4717,
  "æ©Ħæ¦Ħ": 4718,
  "å¼Ģå¿ĥ": 4719,
  "sor": 4720,
  "çļĩ": 4721,
  "èĴĤ": 4722,
  "çļĦâĢľ": 4723,
  "é²ģ": 4724,
  "å²©": 4725,
  "å¯¹è±¡": 4726,
  "ï¼Łå½ĵçĦ¶åı¯ä»¥": 4727,
  "å®Ĺ": 4728,
  "åŃ¦ä¹łåĴĮ": 4729,
  "èįīåľ°": 4730,
  "36": 4731,
  "ä¸Ģåı¥": 4732,
  "çĥ¹é¥ª": 4733,
  "å¥Ķ": 4734,
  "å°ıçļĦ": 4735,
  "æ¬§æ´²": 4736,
  "Ġï¼ĮĠ": 4737,
  "ï¼ĮéĢĤåĲĪ": 4738,
  "John": 4739,
  "èĢģé¼ł": 4740,
  "ä¿¡æģ¯ãĢĤ": 4741,
  "çļĦåİŁåĽł": 4742,
  "èĬĤå¥ı": 4743,
  "åį±éĻ©": 4744,
  "ra": 4745,
  "å¼¦": 4746,
  "äºĨä¸ĢäºĽ": 4747,
  "one": 4748,
  "çļĦè´¨éĩı": 4749,
  "ä¸¾è¡Į": 4750,
  "ph": 4751,
  "çłĶ": 4752,
  "å¤ĸè§Ĥ": 4753,
  "å¯Įæľī": 4754,
  "è§£çŃĶ": 4755,
  "ãĢĤè¿Ļæĺ¯ä¸Ģä¸ª": 4756,
  "å·¾": 4757,
  "å¤§çº¦": 4758,
  "è½¦è¾Ĩ": 4759,
  "Ð¾Ð": 4760,
  "ult": 4761,
  "å®ŀçĶ¨": 4762,
  "æĥ³è±¡": 4763,
  "éķ¿çļĦ": 4764,
  "è°ĵè¯Ń": 4765,
  "å£ģ": 4766,
  "8ä¸ª": 4767,
  "ãĢĤè¿Ļæĺ¯ä¸Ģ": 4768,
  "ãĢĤĊè§£éĩĬ": 4769,
  "ï¼Įä¹Łå°±æĺ¯": 4770,
  "ï¼ĮçĶ¨äºİ": 4771,
  ",O,O": 4772,
  "åħħåĪĨ": 4773,
  "è®¤è¯Ĩ": 4774,
  "å®īè£ħ": 4775,
  "ÙĪ": 4776,
  "åĩ¡": 4777,
  "ĠĊ": 4778,
  "çļĦåĲįç§°": 4779,
  "å°¼åħĭ": 4780,
  "lu": 4781,
  "ï¼ĮæıĲä¾Ľ": 4782,
  "è£ģ": 4783,
  "ä¹ĭéĹ´çļĦåħ³ç³»": 4784,
  "åį°è±¡": 4785,
  "æĺİçĻ½": 4786,
  "çļĦä¸Ģç§į": 4787,
  "çĴĥ": 4788,
  "éĿ¢ç²ī": 4789,
  "åĵªç§į": 4790,
  "çļĦåŁºæľ¬": 4791,
  "ä¸ĸçķĮä¸ĬæľĢ": 4792,
  "å®ŀè·µ": 4793,
  "è°ľ": 4794,
  "æ¶īåıĬåĪ°": 4795,
  "æĳĦæ°ıåº¦": 4796,
  "è¿ĺåī©": 4797,
  "çļĦæģ": 4798,
  "é¡¾å®¢": 4799,
  "èĭ±æĸĩåı¥åŃĲ": 4800,
  "çĿ¡çľł": 4801,
  "çļĦè¡Įä¸º": 4802,
  "ï¼Įç¡®ä¿Ŀ": 4803,
  "ï¼Įåı¯ä»¥ä½¿çĶ¨": 4804,
  "ãĢĤä¸ºäºĨ": 4805,
  "æ´Ĵ": 4806,
  "ãĢĤĊç¼ĸè¾ĳ": 4807,
  "çĶµæ±ł": 4808,
  "å¤ļå°ĳä¸ª": 4809,
  "äº¤æĺĵ": 4810,
  "åªļ": 4811,
  "ç¾½": 4812,
  "å°½åı¯èĥ½": 4813,
  "èĤĸ": 4814,
  "çĶľçĤ¹": 4815,
  "ï¼īãĢģ": 4816,
  "TheĠquickĠbrownĠfoxĠjumpsĠoverĠtheĠlazyĠdog": 4817,
  "æ¯Ķä¾ĭ": 4818,
  "ãĢĤçĶµå½±": 4819,
  "22": 4820,
  "ç»´æĬ¤": 4821,
  "èĴĻ": 4822,
  "çİ«": 4823,
  "çļĦç¿": 4824,
  "if": 4825,
  "ä»Ĭå¹´": 4826,
  "rand": 4827,
  "æĥľ": 4828,
  "åŀ«": 4829,
  "è¿Ļæľ¬ä¹¦": 4830,
  "è°Ĭ": 4831,
  "æĹ¥ï¼Į": 4832,
  "å¤§åľ°": 4833,
  "ousĠ": 4834,
  "çļĦçŁ¥": 4835,
  "åĲĹï¼Łå½ĵ": 4836,
  "wasĠ": 4837,
  "ãĢĤĊé¢ĺçĽ®ï¼ļå°ıæĺİæľī": 4838,
  "æģĭ": 4839,
  "èĮĥåĽ´åĨħ": 4840,
  "åĨ¥": 4841,
  "è®¾æĸ½": 4842,
  "çļĦç²¾": 4843,
  "åıªèĥ½": 4844,
  "ng": 4845,
  "å¸¦æľī": 4846,
  "tex": 4847,
  "çļĦæ³ķ": 4848,
  "æĸ°æ¬¾": 4849,
  "å¼Ĺ": 4850,
  "è¿Ļç¯ĩ": 4851,
  "ãĢĤĊå°ıæĺİæľī": 4852,
  "å®£ä¼ł": 4853,
  "åĬĽãĢĤ": 4854,
  "ä¸Ńï¼ĮâĢľ": 4855,
  "èĥģ": 4856,
  "æ¶Īæŀģ": 4857,
  "çİ«çĳ°": 4858,
  "éĺĶ": 4859,
  "âĢĿè¿Ļä¸ª": 4860,
  "2019": 4861,
  "çļĦçľŁ": 4862,
  "æĹ¨åľ¨": 4863,
  "çļĦç½ĳ": 4864,
  "æĸĩæľ¬ï¼ļ": 4865,
  "ä½¿çĶ¨äºĨ": 4866,
  "èĦı": 4867,
  "æĬĢæľ¯çļĦ": 4868,
  "çİ»çĴĥ": 4869,
  "çĥĤ": 4870,
  "outĠ": 4871,
  "we": 4872,
  "åı¥åŃĲä¸Ń": 4873,
  "ä¸ļåĬ¡": 4874,
  "èĻ¾": 4875,
  "å°±åı¯ä»¥": 4876,
  "Ċ|Ġ": 4877,
  "åĪĽä½ľä¸Ģé¦ĸ": 4878,
  "æĹĭå¾ĭ": 4879,
  "å¾Īå¥½ï¼Į": 4880,
  "è¿Ŀ": 4881,
  "ä¸īè§Ĵå½¢": 4882,
  "è¿Ľè¡ĮäºĨ": 4883,
  "å¤§è±¡": 4884,
  "ï¼Įä½łèĥ½": 4885,
  "ç»´çĶŁç´ł": 4886,
  "åĮºåĿĹ": 4887,
  "æłĩçŃ¾": 4888,
  "åĨįæ¬¡": 4889,
  "48": 4890,
  "åĲĮæł·": 4891,
  "éĿŀå¸¸éĩįè¦ģ": 4892,
  "çļĦèĭ¹æŀľ": 4893,
  "å®Įç¾İ": 4894,
  "æ²Ļåıĳ": 4895,
  "çļĦåŃ£èĬĤ": 4896,
  "ä»Ĭå¤©å¤©æ°Ķ": 4897,
  "éĥ¨éĹ¨": 4898,
  "---": 4899,
  "èĥ¡èĲ": 4900,
  "èĥ¡èĲĿåįľ": 4901,
  "äºĨï¼ģ": 4902,
  "åĢ¼å¾Ĺä¸Ģ": 4903,
  "ä»ĸäºº": 4904,
  "ç´¯": 4905,
  "2018": 4906,
  "ãĢĤĊçĶ¨": 4907,
  "è®²ä¸Ģä¸ª": 4908,
  "1:Ġ": 4909,
  "æ²ŁéĢļ": 4910,
  "åľ°çĲĥçļĦ": 4911,
  "35": 4912,
  "vi": 4913,
  "çļĦèĥ½åĬĽ": 4914,
  "ç¡®è®¤": 4915,
  "æĪĲå°±": 4916,
  "å¨ģèĥģ": 4917,
  "åķĨåºĹ": 4918,
  "æĢª": 4919,
  "èµĭ": 4920,
  "åıĤè§Ĥ": 4921,
  "åİ¨æĪ¿": 4922,
  "æĢİä¹Īæł·": 4923,
  "çļĦåŁºç¡Ģ": 4924,
  "è½¬åĮĸä¸º": 4925,
  "ä¿®èº«": 4926,
  "æĸĳ": 4927,
  "æī°": 4928,
  "Tr": 4929,
  "ï¼Įå®ĥçļĦ": 4930,
  "ç»¼åĲĪ": 4931,
  "ç¦ģ": 4932,
  "åģ¶æķ°": 4933,
  "à¯į": 4934,
  "ç±³ï¼Į": 4935,
  "çļĦç¾İé£Ł": 4936,
  "ä¾µ": 4937,
  "è½¨": 4938,
  "éĺ»": 4939,
  "ä¸ĢçĤ¹": 4940,
  "éĢģç»Ļ": 4941,
  "retur": 4942,
  "æ³¥": 4943,
  "åº¦ï¼Į": 4944,
  "çŁ¿": 4945,
  "æ¯«åįĩ": 4946,
  "ï¼ĮåĪ¤æĸŃ": 4947,
  "å·¨å¤§çļĦ": 4948,
  "ãĢĤĊé¢ĺçĽ®ï¼ļ": 4949,
  "æĺ¯è°ģ": 4950,
  "èº«å¿ĥ": 4951,
  "å©´": 4952,
  "St": 4953,
  "ï¼Įè¢«": 4954,
  "æł¼å¼ı": 4955,
  "ãĢĤåħ·ä½ĵ": 4956,
  "è§Ĥçľĭ": 4957,
  "é¢Ĩå¯¼": 4958,
  "åıł": 4959,
  "ãĢĤä¸Ģ": 4960,
  "åĴĮå°ı": 4961,
  "ï¼ĮçĶ±": 4962,
  "çº¢æ¥¼": 4963,
  "æľīçĤ¹": 4964,
  "æ»¤": 4965,
  "è·¯ä¸Ĭ": 4966,
  "æī®": 4967,
  "æŃ¦": 4968,
  "_list": 4969,
  "æĸĩåĮĸåĴĮ": 4970,
  "ä¼ĺæĥł": 4971,
  "æ¸©é¦¨": 4972,
  "è®¡ç®Ĺæľºç§ĳåŃ¦": 4973,
  "æĪĸåħ¶ä»ĸ": 4974,
  "åºŁ": 4975,
  "á»": 4976,
  "æ³Ĭ": 4977,
  "æĪĲåĳĺ": 4978,
  "ä¸»äººåħ¬": 4979,
  "èī¯å¥½": 4980,
  "è¯Ńæ°Ķ": 4981,
  "æ³¢çī¹": 4982,
  "adĠ": 4983,
  "éĩĬæĶ¾": 4984,
  "unĠ": 4985,
  "ãĢĤĠĊ": 4986,
  "åĭĩæ°Ķ": 4987,
  "çļĦä¸ĸçķĮ": 4988,
  "ï¼Įè®©æĪĳä»¬": 4989,
  "åħ¬åĽŃéĩĮ": 4990,
  "å¹³éĿ¢": 4991,
  "æ¯ķ": 4992,
  "Mar": 4993,
  "çİ©å®¶": 4994,
  "ä¼łéĢĴ": 4995,
  "å°Ĩåľ¨": 4996,
  "ä½Ĩæĺ¯": 4997,
  "æ¼Ĥäº®": 4998,
  "ä¹±": 4999,
  "æ»´": 5000,
  "åħĭçļĦ": 5001,
  "boo": 5002,
  "ä¸¹": 5003,
  "æ¡¶": 5004,
  "è±ª": 5005,
  "çĶ»éĿ¢": 5006,
  "æĴŀ": 5007,
  "è¦ĨçĽĸ": 5008,
  "çĽĨ": 5009,
  "çĹĩçĬ¶": 5010,
  "çĽŁ": 5011,
  "è¯Ŀé¢ĺ": 5012,
  "åłĨ": 5013,
  "æŁ¿": 5014,
  "è¾£æ¤Ĵ": 5015,
  "æĲħæĭĮåĿĩåĮĢ": 5016,
  "è¯·è¾ĵåħ¥": 5017,
  "Ġ+Ġ3": 5018,
  "çļĦæŁ": 5019,
  "illĠ": 5020,
  "è¢«è®¤ä¸ºæĺ¯": 5021,
  "ç»Ĩèħ»": 5022,
  "ç¿»è¯ĳæĪĲä¸Ńæĸĩï¼ļ": 5023,
  "æ±Ĥè§£": 5024,
  "æĮĩå¯¼": 5025,
  "æĮĩçļĦæĺ¯": 5026,
  "æµĵéĥģ": 5027,
  "æŀļ": 5028,
  "çļĦç«": 5029,
  "å·¥ä¸ļ": 5030,
  "æĴ°": 5031,
  "ä¼łæĴŃ": 5032,
  "è±ĨèħĲ": 5033,
  "çļĦæ°Ķæģ¯": 5034,
  "ï¼Įä½ĨæĪĳ": 5035,
  "çıŃçº§": 5036,
  "æķ°Ġ=Ġ": 5037,
  "åĬłçĥŃ": 5038,
  "è±¡å¾ģ": 5039,
  "æĻºæħ§": 5040,
  "åıĳåĩº": 5041,
  "æĢ§ãĢģ": 5042,
  "çĸ²": 5043,
  "ãĢĤè¿Ļæł·": 5044,
  "é£İåĲ¹": 5045,
  "ï¼Łé¦ĸåħĪ": 5046,
  "ç¥ŀç»ıç½ĳç»ľ": 5047,
  "çļĦåħ·ä½ĵ": 5048,
  "äººå¿ĥ": 5049,
  "å°±ä¼ļ": 5050,
  "æİ¨æĸŃ": 5051,
  "éĨĭ": 5052,
  "å·¨å¤§": 5053,
  "åŃĶ": 5054,
  "æĦŁåħ´è¶£": 5055,
  "åĪ©æ¶¦": 5056,
  "ç¿ł": 5057,
  "ord": 5058,
  "ä¸īç§į": 5059,
  "ãĢĤĊä»¥ä¸ĭæĺ¯ä¸Ģéģĵå°ıåŃ¦æķ°åŃ¦é¢ĺï¼ļå°ıæĺİæľī": 5060,
  "åħ³éĶ®åŃĹ": 5061,
  "æĢİæł·": 5062,
  "çļĦæŃ¥éª¤": 5063,
  "ä½ľå®¶": 5064,
  "irĠ": 5065,
  "ve": 5066,
  "èĤª": 5067,
  "åıĭè°Ĭ": 5068,
  "çļĦçĬ": 5069,
  "è·¯çº¿": 5070,
  "1,Ġ2,Ġ": 5071,
  "èĦĤèĤª": 5072,
  "é£ŀæľº": 5073,
  "çļĦåħ³ç³»": 5074,
  "æĺ¯Ġ": 5075,
  "seĠ": 5076,
  "æŀĦæĪĲ": 5077,
  "å¦Ĥä¸ĭï¼ļ": 5078,
  "A:Ġ": 5079,
  "ï¼ĮæĹłæ³ķ": 5080,
  "8Ġ": 5081,
  "åı«åģļ": 5082,
  "çº¢æ¥¼æ¢¦": 5083,
  "åİŁåŃĲ": 5084,
  "äººãĢĤ": 5085,
  "è¾ħ": 5086,
  "éĻª": 5087,
  "ist": 5088,
  "æ¸¸å®¢": 5089,
  "çļĦæ¸ħ": 5090,
  "ç§ĭåŃ£": 5091,
  "ä¸Ńæĸĩç¿»è¯ĳ": 5092,
  "åĪłéĻ¤": 5093,
  "é¢Ī": 5094,
  "æĺİåªļ": 5095,
  "åĮĸåĴĮ": 5096,
  "åį°åº¦": 5097,
  "éķ¿æľŁ": 5098,
  "éĢĤå½ĵçļĦ": 5099,
  "çļĦæ¶": 5100,
  "å¦ĩ": 5101,
  "çļĦé¦ĸ": 5102,
  "Chin": 5103,
  "æııè¿°äºĨ": 5104,
  "è·¨": 5105,
  "å¾·åĽ½": 5106,
  "æľŁå¾ħ": 5107,
  "ãĢĤĊé¢ĺçĽ®ï¼ļå°ıæĺİ": 5108,
  "èĢĥè¯ķ": 5109,
  "é«ĺï¼Į": 5110,
  "ç±»åŀĭçļĦ": 5111,
  "è´Ńçī©æ¸ħåįķ": 5112,
  "Ġ×": 5113,
  "èĩªä¿¡": 5114,
  "ä»ª": 5115,
  "è¿ĩåº¦": 5116,
  "ãĢĤâĢĿĊ": 5117,
  "é¢Ħéĺ²": 5118,
  "æĹģ": 5119,
  "å¸®æĪĳæĥ³": 5120,
  "ãĢĤåĲĮæĹ¶": 5121,
  "ç§įæ¤į": 5122,
  "é¸ŁåĦ¿": 5123,
  "é¢Ħè®¢": 5124,
  "åı¯éĿł": 5125,
  "ä¸º5": 5126,
  "çļĦæ¢": 5127,
  "çĽ®çļĦ": 5128,
  "ouldĠ": 5129,
  "æ²¹ãĢģ": 5130,
  "é¹¿": 5131,
  "ä»Ģä¹Īï¼Ł": 5132,
  "2:Ġ": 5133,
  "ãĢĤè¿Ļç¯ĩæĸĩç«ł": 5134,
  "æĬĵ": 5135,
  "300": 5136,
  "åİĨåı²ä¸Ĭ": 5137,
  "çīĪåŀĭ": 5138,
  "çŃīå¼ı": 5139,
  "åĪ¶æĪĲ": 5140,
  "æ¢¨": 5141,
  "éī": 5142,
  "ä½łä»¬": 5143,
  "å°ıçĲĥ": 5144,
  "ä¹Į": 5145,
  "120": 5146,
  "iti": 5147,
  "çĬ¹": 5148,
  "çļĦæĮĳæĪĺ": 5149,
  "banan": 5150,
  "åľ¨è¿Ļ": 5151,
  "çĽĪ": 5152,
  "éĿ¢æĿ¡": 5153,
  "ä»ģ": 5154,
  "åĲĪå¹¶": 5155,
  "è®¡ç®Ĺåĩº": 5156,
  "æµħ": 5157,
  "çļĦæĹ¥": 5158,
  "åħĥ/": 5159,
  "ä¸ĭéĻį": 5160,
  "ĠP": 5161,
  "æİ¨åĩº": 5162,
  "å¤ķ": 5163,
  "åĴĮæ°´": 5164,
  "åľºåĲĪ": 5165,
  "åŃ¦ä¼ļ": 5166,
  "ï¼ļ5": 5167,
  "éĥ½åı¯ä»¥": 5168,
  "æ³°åĿ¦": 5169,
  "çŁ¥åĲį": 5170,
  "ke": 5171,
  "ä¼¸": 5172,
  "ãĢĤä¸Ģä¸ª": 5173,
  "æ°¢": 5174,
  "èĬĤæĹ¥": 5175,
  "æİ¨å¹¿": 5176,
  "ä¸ĩçī©": 5177,
  "input(\"": 5178,
  "ä¸ĭä¸Ģä¸ª": 5179,
  "åĲĪçī©": 5180,
  "ç»Ļåĩºä¸Ģä¸ª": 5181,
  "æĪĳéľĢè¦ģ": 5182,
  "ãĢĤè¯·åĳĬè¯īæĪĳ": 5183,
  "æİ¢è®¨äºĨ": 5184,
  "æ³ī": 5185,
  "éī´": 5186,
  "ä¼Ļ": 5187,
  "æ¡Ĩ": 5188,
  "ï¼Įä½łéľĢè¦ģ": 5189,
  "èĤĮèĤī": 5190,
  "åħ·å¤ĩ": 5191,
  "çļĦæ¦Ĥå¿µ": 5192,
  "ãĢĮ": 5193,
  "canĠ": 5194,
  "notĠ": 5195,
  "ate": 5196,
  "ä¸ĢäºĽåħ³äºİ": 5197,
  "ï¼ĮåıĪ": 5198,
  "returnĠ": 5199,
  "ï¼Įè®©ä½ł": 5200,
  "Ø±": 5201,
  "ï¼ĮèĬ±": 5202,
  "æııè¿°ä¸Ģä¸ĭ": 5203,
  "éªĮè¯ģ": 5204,
  "çļĦçĹ": 5205,
  "å¹´ä»£": 5206,
  "å¤©çĦ¶": 5207,
  "çĲĥåĳĺ": 5208,
  "éĥ½åľ¨": 5209,
  "çļĦåĲ«ä¹ī": 5210,
  "))": 5211,
  "ç»³": 5212,
  "åĮºåĪ«": 5213,
  "çģ«è½¦": 5214,
  "pe": 5215,
  "ä½łéľĢè¦ģ": 5216,
  "ç©Ĩ": 5217,
  "åĩĿ": 5218,
  "åĨ¬å¤©": 5219,
  "å°¼åħĭåı·": 5220,
  "ï¼ĮåĽŀçŃĶ": 5221,
  "å²ģæľĪ": 5222,
  "æĺ¯æľĢ": 5223,
  "çŁ©": 5224,
  "çļĦæłĩé¢ĺ": 5225,
  "è¹Ī": 5226,
  "ãĢĤĊä»¥ä¸ĭæĺ¯ä¸Ģéģĵå°ıåŃ¦æķ°åŃ¦é¢ĺï¼ļå°ıæĺİ": 5227,
  "ä¿ĿéĻ©": 5228,
  "allĠ": 5229,
  "ãĢĤæĹłè®º": 5230,
  "èĭĹ": 5231,
  "æİ¢éĻ©": 5232,
  "åĮºåĿĹéĵ¾": 5233,
  "åĮĻ": 5234,
  "çļĦçľ¼": 5235,
  "Ċ4.Ġ": 5236,
  "çļĦæĥ³æ³ķ": 5237,
  "æŃī": 5238,
  "21": 5239,
  "ç£ģ": 5240,
  "ãĢĤĊå¦Ĥæŀľ": 5241,
  "DNA": 5242,
  "ï¼Įå¹¶æıĲä¾Ľ": 5243,
  "27": 5244,
  "èº«ä½ĵåģ¥åº·": 5245,
  "éĿ¢åĽ¢": 5246,
  "ä¼ĺéĽħ": 5247,
  "ava": 5248,
  "æ³°åĿ¦å°¼åħĭåı·": 5249,
  "æł¹éĵħç¬Ķ": 5250,
  "ï¼Įåĩıå°ĳ": 5251,
  "çļĦçŁ¥è¯Ĩ": 5252,
  "æĭľ": 5253,
  "ç±»åŀĭï¼ļ": 5254,
  "iPh": 5255,
  "29": 5256,
  "à´": 5257,
  "ä½ĵçļĦ": 5258,
  "æ¼ł": 5259,
  "Ø§ÙĦ": 5260,
  "of": 5261,
  "ç»µ": 5262,
  "eĠisĠ": 5263,
  "ä½ĵç§¯": 5264,
  "åĨľä¸ļ": 5265,
  "çļĦçĻ": 5266,
  "ä¼ŀ": 5267,
  "åĸ»": 5268,
  "ä¸įå¤ª": 5269,
  "éĺ²æŃ¢": 5270,
  "éĻ·": 5271,
  "ï¼ļâĢľæĪĳ": 5272,
  "è¿ĲçĶ¨": 5273,
  "çķªèĮĦéħ±": 5274,
  "è¯Ĺäºº": 5275,
  "ï¼ĮæĪĳæĹłæ³ķ": 5276,
  "æ®ĸ": 5277,
  "çļĦæĺ¯ï¼Į": 5278,
  "åĩłä¸ªèĭ¹æŀľ": 5279,
  "çĹħæ¯Ĵ": 5280,
  "æĦŁï¼Į": 5281,
  "ï¼Įä¸įè¦ģ": 5282,
  "åı¤åħ¸": 5283,
  "ãĢį": 5284,
  "å®ļå¾ĭ": 5285,
  "ourĠ": 5286,
  "çļĦç¼ĸ": 5287,
  "ãĢĤéļıçĿĢ": 5288,
  "ÏĢ": 5289,
  "æĶ¹åĨĻ": 5290,
  "èĭ±å°º": 5291,
  "èĪŀè¹Ī": 5292,
  "èİī": 5293,
  "èº«ä»½": 5294,
  "å¯Ĩåº¦": 5295,
  "æł¹æį®èĩªå·±çļĦ": 5296,
  "Ġ2Ġ": 5297,
  "èµ°äºĨ": 5298,
  "æłĩå¿Ĺ": 5299,
  "è¯´è¯Ŀ": 5300,
  "åĽłæŃ¤ï¼Įå°ıæĺİ": 5301,
  "ï¼ĮèĢĮæĺ¯": 5302,
  "çļĦãĢģ": 5303,
  "éŁ©çīĪ": 5304,
  "67": 5305,
  "å¾ĹåĪĨ": 5306,
  "å¯¹åºĶ": 5307,
  "èģļä¼ļ": 5308,
  "æķıæį·": 5309,
  "å®¿": 5310,
  "ç²¾èĩ´": 5311,
  "çļĦæµģ": 5312,
  "go": 5313,
  "æķ´éĻ¤": 5314,
  "æłĳåı¶": 5315,
  "man": 5316,
  "3ä¸ªèĭ¹æŀľ": 5317,
  "åºĨç¥Ŀ": 5318,
  "å¿ł": 5319,
  "éŃĤ": 5320,
  "çļĦæĶ¯": 5321,
  "Hello": 5322,
  "ãĢĤåħ¶ä¸Ń": 5323,
  "é¢Ĺç³ĸ": 5324,
  "å¿½": 5325,
  "å¤ªéĺ³èĥ½": 5326,
  "flo": 5327,
  "å¼ºè°ĥäºĨ": 5328,
  "ãĢĤè¿Ļæĺ¯": 5329,
  "å¤§åŀĭ": 5330,
  "ï¼ĮåºĶè¯¥": 5331,
  "çľĭåĪ°äºĨ": 5332,
  "âĢĿĠ": 5333,
  "ä¸Ģé¡¹": 5334,
  "åĲ¬åĪ°": 5335,
  "åı¤èĢģ": 5336,
  "ï¼Įå°¤åħ¶": 5337,
  "ç¾İå¦Ļ": 5338,
  "é¼»": 5339,
  "æĻ´æľĹ": 5340,
  "æ³½": 5341,
  "ä¿Ĺ": 5342,
  "éĶģ": 5343,
  "å¦Ĥä½ķåľ¨": 5344,
  "æĺİäº®": 5345,
  "veryĠ": 5346,
  "æ¶Īè´¹èĢħ": 5347,
  "é¦Ī": 5348,
  "éĩįçĤ¹": 5349,
  "ãĢĤå¥½çļĦï¼Įçİ°åľ¨": 5350,
  "æľĪä»½": 5351,
  "çļĦæ°ĽåĽ´": 5352,
  "5ä¸ªèĭ¹æŀľ": 5353,
  "çļĦéĺ³åħī": 5354,
  "çľ¼çĿĽ": 5355,
  "å¸ħ": 5356,
  "çļĦæĽ": 5357,
  "è°Ĳ": 5358,
  "è§Ĩä¸º": 5359,
  "éģ¥": 5360,
  "ä»Ĭå¤©æĺ¯": 5361,
  "ä¸īè§Ĵå½¢çļĦ": 5362,
  "å¿ĥä¸Ń": 5363,
  "æĸ¹å½¢": 5364,
  "ard": 5365,
  "è¯·åĳĬè¯īæĪĳ": 5366,
  "ä¸ľäº¬": 5367,
  "çļĦä¸Ģéĥ¨åĪĨ": 5368,
  "ç»ĻæĤ¨": 5369,
  "æľīæ²¡æľī": 5370,
  "çĶŁæ´»ä¸Ń": 5371,
  "èĥ¶": 5372,
  "ç¼ĺ": 5373,
  "æłĩé¢ĺï¼Į": 5374,
  "Ã³": 5375,
  "Ċç»Ļå®ļ": 5376,
  "åĸ·": 5377,
  "éĿŀå¸¸å¥½": 5378,
  "çļĦæ£ķèī²": 5379,
  "äºİæĺ¯": 5380,
  "ä¾£": 5381,
  "èĽĩ": 5382,
  "Wh": 5383,
  "6Ġ": 5384,
  "èľľèľĤ": 5385,
  "çļĦéĢŁåº¦": 5386,
  "å¤įåı¤": 5387,
  "ï¼Įè¿ĺåī©ä¸ĭ": 5388,
  "å¤®": 5389,
  "----": 5390,
  "çļĦæłĳ": 5391,
  "ç¾İåĳ³çļĦ": 5392,
  "ï¼Įå¹¶å°Ĩ": 5393,
  "å»ºè®¾": 5394,
  "ï¼Įä¸»è¦ģ": 5395,
  "æĺ¯åĲ¦æľī": 5396,
  "æ°§æ°Ķ": 5397,
  "input(\"è¯·è¾ĵåħ¥": 5398,
  "æŃĮè¯į": 5399,
  "ãĢĤĊ5.Ġ": 5400,
  "åľĨå½¢": 5401,
  "æ°´ä¸Ń": 5402,
  "å¾Īæľī": 5403,
  "åİŁæĸĩ": 5404,
  "ess": 5405,
  "çĵ£": 5406,
  "è¿ĺæľīåħ¶ä»ĸ": 5407,
  "æĳĺè¦ģï¼ļ": 5408,
  "çļĦç¥ŀ": 5409,
  "pi": 5410,
  "àª": 5411,
  "äº§çĶŁäºĨ": 5412,
  "çĥ¦": 5413,
  "æĺŁæĺŁ": 5414,
  "åĲįè¨Ģ": 5415,
  "çļĦåıĺåĮĸ": 5416,
  "èįĴ": 5417,
  "çĺ¦": 5418,
  "æľįè£ħ": 5419,
  "å®¾è¯Ń": 5420,
  "ç¨¿": 5421,
  "ä¸Ĭè¿°": 5422,
  "åĽ¾ä¹¦é¦Ĩ": 5423,
  "çĤī": 5424,
  "çĶµå½±çļĦ": 5425,
  "æĻ®éĢļ": 5426,
  "yourĠ": 5427,
  "fi": 5428,
  "Ð»": 5429,
  "ï¼ĮæĹł": 5430,
  "å±ķå¼Ģ": 5431,
  "ä¼ĺç¾İ": 5432,
  "æĿī": 5433,
  "ãĢģæĻºèĥ½": 5434,
  "åģ¥åº·çļĦ": 5435,
  "çĻ¾æĲŃ": 5436,
  "æīĵåį°": 5437,
  "æ¥ļ": 5438,
  "æĻ¶": 5439,
  "èıľãĢģ": 5440,
  "æĮĳ": 5441,
  "å£³": 5442,
  "æııåĨĻ": 5443,
  "æĦģ": 5444,
  "ï¼Łå°ıæĺİæľī": 5445,
  "åĬ©æīĭ": 5446,
  "çļĦæł¸": 5447,
  "æŃ£å¼ı": 5448,
  "åĮ»éĻ¢": 5449,
  "çļĦæ°´æŀľ": 5450,
  "åı¯æĮģç»Ńåıĳå±ķ": 5451,
  "è¡¬è¡«": 5452,
  "èľĤèľľ": 5453,
  "éĴ¢çĲ´": 5454,
  "çĽĹ": 5455,
  "æ°´ãĢģ": 5456,
  "Ġ=Ġ4": 5457,
  "æ£Ģæµĭ": 5458,
  "çļĦæľįåĬ¡": 5459,
  "sĠandĠ": 5460,
  "éĥ½èĥ½": 5461,
  "result": 5462,
  "po": 5463,
  "å¾Ĵ": 5464,
  "çĽ¸åıį": 5465,
  "ç´§å¼ł": 5466,
  "çļĦç¬ĳ": 5467,
  "å¤§éĩıçļĦ": 5468,
  "é¬": 5469,
  "âĢľæĪĳ": 5470,
  "cat": 5471,
  "æĶ¶éĽĨ": 5472,
  "ä¼ļåľ¨": 5473,
  "çŃīï¼ī": 5474,
  "è¯ĨåĪ«åĩº": 5475,
  "jo": 5476,
  "---Ġ": 5477,
  "æĢĸ": 5478,
  "ãĢĤçŃĶæ¡Ī": 5479,
  "æĴĳ": 5480,
  "çº¤ç»´": 5481,
  "æŃ£å¸¸": 5482,
  "å¤©æ°Ķé¢ĦæĬ¥": 5483,
  "æīĵéĢł": 5484,
  "àº": 5485,
  "éĽ¾": 5486,
  "arr": 5487,
  "åį«æĺŁ": 5488,
  "ï¼Įä»¿ä½Ľ": 5489,
  "åĳĪçİ°åĩº": 5490,
  "thisĠ": 5491,
  "æıŃ": 5492,
  "è§Ħæ¨¡": 5493,
  "æĺ¾å¾Ĺ": 5494,
  "à¤¾": 5495,
  "äºĴçĽ¸": 5496,
  "çļĦé«ĺ": 5497,
  "åĪĨæŀĲåĴĮ": 5498,
  "æ¢¦æĥ³": 5499,
  "ĠC": 5500,
  "ç¿Ķ": 5501,
  "é½Ĳ": 5502,
  "èĩªåĬ¨é©¾é©¶": 5503,
  "ãĢĤĊæıĲä¾Ľ": 5504,
  "èĢĮè¨Ģ": 5505,
  "ç¢§": 5506,
  "åºĦ": 5507,
  "çĲĨè§£åĴĮ": 5508,
  "ãĢĤå°½ç®¡": 5509,
  "å½±çīĩ": 5510,
  "ä¿ĿçķĻ": 5511,
  "ä¼ļæľī": 5512,
  "ç©·": 5513,
  "ä¸İåħ¶ä»ĸ": 5514,
  "æĪĲç«ĭ": 5515,
  "ageĠ": 5516,
  "èµĸ": 5517,
  "ï¼Łæııè¿°ï¼ļ": 5518,
  "è®¿éĹ®": 5519,
  "çĮ«åĴª": 5520,
  "å¤§ï¼Į": 5521,
  "çĬ¯ç½ª": 5522,
  "å®¤æ°Ķä½ĵ": 5523,
  "æĢ»æķ°": 5524,
  "ifĠ": 5525,
  "äººå·¥æĻºèĥ½çļĦ": 5526,
  "ãĢĤæľĢåĲİï¼Į": 5527,
  "é±¼ãĢģ": 5528,
  "çļĦçŁŃæĸĩ": 5529,
  "çļĦäº§åĵģ": 5530,
  "å°¼äºļ": 5531,
  "éĢĨ": 5532,
  "ï¼Įå¸ĮæľĽ": 5533,
  "çļĦæ·±": 5534,
  "åħīçº¿": 5535,
  "åħħè¶³": 5536,
  "çĶŁåĬ¨": 5537,
  "Ġ-Ġ3": 5538,
  "åĲ¸æĶ¶": 5539,
  "Ġ3Ġ": 5540,
  "ç§¯æŀģçļĦ": 5541,
  "æľĢå°ı": 5542,
  "æĳĺ": 5543,
  "æ©¡": 5544,
  "åĨłåĨĽ": 5545,
  "åı£åı·": 5546,
  "æĬ¹": 5547,
  "åĶ¯ä¸Ģ": 5548,
  "ï½": 5549,
  "ç¾İæĻ¯": 5550,
  "åľ¨åĵªéĩĮ": 5551,
  "è¿ħéĢŁ": 5552,
  "Al": 5553,
  "çļĦé£İéĻ©": 5554,
  "çļĦæ¢¦": 5555,
  "æĸĩæĺİ": 5556,
  "æ®ĭ": 5557,
  "æķ°æį®çļĦ": 5558,
  "åħ³éĶ®ä¿¡æģ¯": 5559,
  "ç³Ĭ": 5560,
  "Â°C": 5561,
  "ãĢĤå¥½çļĦï¼Įä»¥ä¸ĭæĺ¯": 5562,
  "çĽĲåĴĮ": 5563,
  "æī®æ¼Ķ": 5564,
  "èĤº": 5565,
  "çĻĮ": 5566,
  "çļĦæķ°åŃĹ": 5567,
  "å°±åĥı": 5568,
  "é¢ĳçİĩ": 5569,
  "ãĢĤè¯·ç»ĻæĪĳ": 5570,
  "ç¼ºä¹ı": 5571,
  "5Ġ=Ġ": 5572,
  "åĴĮå¹³": 5573,
  "ãĢĤĊå°Ĩä»¥ä¸ĭæĸĩæľ¬": 5574,
  "èĥľåĪ©": 5575,
  "è¯ŃéŁ³è¯ĨåĪ«": 5576,
  "æľĢåĸľæ¬¢": 5577,
  "çļĦæ£ķèī²çĭĲçĭ¸": 5578,
  "åį¢": 5579,
  "æĵ¦": 5580,
  "åĩ¯": 5581,
  "åľ°çĲĥä¸Ĭ": 5582,
  "æĢİä¹Īè¯´": 5583,
  "ä¸ºä¸»": 5584,
  "æĥ³æ³ķ": 5585,
  "ud": 5586,
  "ç½©": 5587,
  "æµĭéĩı": 5588,
  "çļĦä½¿çĶ¨": 5589,
  "es,Ġ": 5590,
  "ï¼Įè¾ĵåĩº": 5591,
  "Goo": 5592,
  "çļĦåĬĽéĩı": 5593,
  "æľĪçĲĥ": 5594,
  "ï¼Įä½¿åħ¶æĽ´åĬł": 5595,
  "ï¼ĮéĹ®": 5596,
  "å¹²åĩĢ": 5597,
  "åı¤è¯Ĺç»ŃåĨĻ": 5598,
  "å©´åĦ¿": 5599,
  "åķĨåĬ¡": 5600,
  "çĳŁ": 5601,
  "æĦŁåĴĮ": 5602,
  "åħĥçļĦ": 5603,
  "ãĢĤĊå°Ĩä¸ĭéĿ¢": 5604,
  "ãĢĤä»¥ä¸ĭæĺ¯ä¸Ģ": 5605,
  "çļĦå¤©æ°Ķé¢ĦæĬ¥": 5606,
  "çļĦæ¤": 5607,
  "è¯ķåĽ¾": 5608,
  "ï¼Įä»ĸçļĦ": 5609,
  "ãĢĤèĥ½åĲ¦": 5610,
  "happ": 5611,
  "ãĢĭæĺ¯ä¸Ģéĥ¨": 5612,
  "åħµ": 5613,
  "ityĠ": 5614,
  "æŀģç«¯": 5615,
  "x+": 5616,
  "è¾ŀ": 5617,
  "è¯´ï¼Į": 5618,
  "çīĪæľ¬": 5619,
  "enceĠ": 5620,
  "æĽ´æĸ°": 5621,
  "çĽĲãĢģ": 5622,
  "æŃ»äº¡": 5623,
  "çļĦåīį": 5624,
  "çĥŃæĥħ": 5625,
  "æ¼«æŃ¥": 5626,
  "çļĦç¨ĭ": 5627,
  "ï¼ĮéĢīæĭ©": 5628,
  "æĻ¯è§Ĥ": 5629,
  "èĨĢ": 5630,
  "è¯Ĺï¼ļ": 5631,
  "æĸ¯Â·": 5632,
  "æĦŁåĪ°éĿŀå¸¸": 5633,
  "çĤ¹ç¬¦åı·": 5634,
  "mor": 5635,
  "æºª": 5636,
  "ä¸įç¡®å®ļ": 5637,
  "çļĦéľĢæ±Ĥ": 5638,
  "æĸĩæ¡ĪçĶŁæĪĲï¼ļåħ³éĶ®è¯įï¼ļ": 5639,
  "ä½ľèĢħï¼ļ": 5640,
  "ãĢĤ2.": 5641,
  "èĩªçĦ¶çģ¾å®³": 5642,
  "33": 5643,
  "âĢĿæĪĸ": 5644,
  "åĩºéĹ¨": 5645,
  "åĸľåī§": 5646,
  "äººä½ĵ": 5647,
  "å£¤": 5648,
  "çļĦå£°éŁ³": 5649,
  "ï¼ĮæĬĬ": 5650,
  "åĪĺ": 5651,
  "å¤ļæķ°": 5652,
  "æļĤ": 5653,
  "èĭ±éĽĦ": 5654,
  "æİĪ": 5655,
  "400": 5656,
  "è§£åĨ³éĹ®é¢ĺ": 5657,
  "çĶŁæĪĲåķĨåĵģæĸĩæ¡Ī": 5658,
  "çĶŁæĪĲåķĨåĵģæĸĩæ¡Īè¾ĵåħ¥ï¼ļ": 5659,
  "åĪĨæķ°": 5660,
  "åĨħå®¹ï¼ļ": 5661,
  "æłĩè®°": 5662,
  "åĴĮç¤¾ä¼ļ": 5663,
  "èĩªèº«": 5664,
  "çĮľ": 5665,
  "çļĦæıĲ": 5666,
  "æĸ¯åĿ¦": 5667,
  "éĤĢ": 5668,
  "è¥¿çº¢": 5669,
  "çĲĥéĺŁ": 5670,
  "çļĦçĮ«": 5671,
  "ÃŃ": 5672,
  "çŁ¶": 5673,
  "æģ¤": 5674,
  "æĸ°åŀĭ": 5675,
  "å¥¶æ²¹": 5676,
  "ãĢĤæİ¥ä¸ĭæĿ¥": 5677,
  "89": 5678,
  "2ä¸ªèĭ¹æŀľ": 5679,
  "my": 5680,
  "the": 5681,
  "hasĠ": 5682,
  "ineĠ": 5683,
  "åĭĥ": 5684,
  "è¥¿çº¢æŁ¿": 5685,
  "åĪĹè¡¨ä¸Ń": 5686,
  "åĩºçīĪ": 5687,
  "çģµæ´»": 5688,
  "åıįé¦Ī": 5689,
  "ãĢĤ'": 5690,
  "èĩªä¸»": 5691,
  "2020": 5692,
  "ä¾¿åĪ©": 5693,
  "ãĢĤæľĢç»Ī": 5694,
  "åŀĤ": 5695,
  "çļĦå¹³æĸ¹": 5696,
  "\"Ċ": 5697,
  "åĽŀå½Ĵ": 5698,
  "çł´åĿı": 5699,
  "$Ġ": 5700,
  "èĭ±æĸĩæĸĩæľ¬": 5701,
  "ãĢĤ6.Ġ": 5702,
  "åħ¨éĿ¢": 5703,
  "åī²": 5704,
  "æ±Ĥåĩº": 5705,
  "ï¼Łå½ĵ": 5706,
  "ç±³é¥Ń": 5707,
  "å¯ĴåĨ·": 5708,
  "æĺ¯åħ³äºİ": 5709,
  "ï¼ĮéĤ£ä¹Īä»ĸ": 5710,
  "nam": 5711,
  "æµ·æµª": 5712,
  "çļĦåĳ³éģĵ": 5713,
  "æµĨ": 5714,
  "Ġ5Ġ": 5715,
  "åľ°åĿĢ": 5716,
  "å°½åĬĽ": 5717,
  "ï¼Įä»·æł¼": 5718,
  "ted": 5719,
  "å±ıå¹ķ": 5720,
  "åħĭæľį": 5721,
  "è®¤çŁ¥": 5722,
  "æĸĩæ¡£": 5723,
  "æŃ¤å¤ĸï¼Į": 5724,
  "ä½©": 5725,
  "æĺĨ": 5726,
  "è¯ķè¯ķ": 5727,
  "ä¹ĺæ³ķ": 5728,
  "èĨľ": 5729,
  "gh": 5730,
  "ä½įæķ°": 5731,
  "ç¿»çĤĴ": 5732,
  "æĺ¯ä¸ĢåĲį": 5733,
  "è¿Ļéģĵ": 5734,
  "èĬĤçĽ®": 5735,
  "èīºæľ¯å®¶": 5736,
  "Java": 5737,
  "è´¾": 5738,
  "åŁİå¸ĤçļĦ": 5739,
  "å¼Ĥå¸¸": 5740,
  "å¤§åĨĻ": 5741,
  "æĪ·å¤ĸæ´»åĬ¨": 5742,
  "éĺĲ": 5743,
  "ãĢĤåĽłæŃ¤ï¼Įå°ıæĺİ": 5744,
  "èĤ©": 5745,
  "ç»ıåħ¸çļĦ": 5746,
  "å¯ĵ": 5747,
  "åĪ«äºº": 5748,
  "ãĢĤĊç»Ļå®ļä¸Ģç»Ħ": 5749,
  "èĪį": 5750,
  "è®¾è®¡ä¸Ģä¸ª": 5751,
  "è¯ģæį®": 5752,
  "fromĠ": 5753,
  "TheĠquickĠbrownĠfoxĠjumpsĠoverĠtheĠlazyĠdog.": 5754,
  "åįĹæŀģ": 5755,
  "ï¼Įçī¹åĪ«": 5756,
  "tionĠ": 5757,
  "æĪĲä¸Ģä¸ª": 5758,
  "åıĸå¾Ĺ": 5759,
  "åĴĮæĥħæĦŁ": 5760,
  "è·³è¿ĩ": 5761,
  "çļĦç¿»": 5762,
  "è°ĥèĬĤ": 5763,
  "éĻĪè¿°åı¥": 5764,
  "æĴĴä¸Ĭ": 5765,
  "å¤ļçļĦ": 5766,
  "éģŃ": 5767,
  "ç¿©": 5768,
  "ä»¥ä¸ĭæĺ¯ä¸Ģä¸ª": 5769,
  "æĹĭè½¬": 5770,
  "0Ġ": 5771,
  "éŀĭåŃĲ": 5772,
  "åĩºåıĳ": 5773,
  "æ¯Ķäºļ": 5774,
  "æľĪäº®": 5775,
  "ie": 5776,
  "çĤ¹åĴĮ": 5777,
  "éĢĤéĩıçļĦ": 5778,
  "Ap": 5779,
  "æĥħåĨµä¸ĭ": 5780,
  "ãĢĤĊåĨĻä¸Ģç¯ĩ": 5781,
  "å¹³æĸ¹ç±³": 5782,
  "ä½ĵçİ°": 5783,
  "çİ¯å¢ĥä¿ĿæĬ¤": 5784,
  "æĵİ": 5785,
  "å±ħæ°ĳ": 5786,
  "çĽ¸ä¼¼åº¦": 5787,
  "ï¼Łå¦Ĥæŀľ": 5788,
  "\"ï¼Į": 5789,
  "ç¢į": 5790,
  "ase": 5791,
  "èĩªåĬ¨åĮĸ": 5792,
  "çļĦä¸ĢäºĽ": 5793,
  "è°ĥæĸĻ": 5794,
  "æĽ´å®¹æĺĵ": 5795,
  "çĤİçĥŃ": 5796,
  "æľºåľº": 5797,
  "è¿Ľè¡ĮæĥħæĦŁ": 5798,
  "å®īéĿĻ": 5799,
  "ä¸ĵæ³¨": 5800,
  "çļĦæ²Ļ": 5801,
  "åĨ¥æĥ³": 5802,
  "åľ°åĽ¾": 5803,
  "å¯¿åĳ½": 5804,
  "çıįæĥľ": 5805,
  "åĴĮè°Ĳ": 5806,
  "è°·æŃĮ": 5807,
  "æĿīçŁ¶": 5808,
  "AĠ": 5809,
  "art": 5810,
  "çļĦæİĴ": 5811,
  "AP": 5812,
  "åı¯ä»¥è®©": 5813,
  "å¾Īå¥½çļĦ": 5814,
  "Ċ5.Ġ": 5815,
  "çļĦä»»åĬ¡": 5816,
  "åĩºçİ°äºĨ": 5817,
  "range": 5818,
  "çļĦçĿ": 5819,
  "æľīæľº": 5820,
  "å®¶éĩĮ": 5821,
  "æĿ¥å®ŀçİ°": 5822,
  "çļĦè·Ŀç¦»": 5823,
  "åı¯ä»¥åĪĨåĪ°": 5824,
  "çĭ¼": 5825,
  "Ãł": 5826,
  "åĴĮĠ": 5827,
  "éģĩåĪ°äºĨ": 5828,
  "æĬĬè¿Ļåı¥è¯Ŀ": 5829,
  "çļĦéĩįè¦ģæĢ§": 5830,
  "çļĦæ©": 5831,
  "åĮħæĭ¬ï¼ļ": 5832,
  "åĪĿåŃ¦": 5833,
  "çīĽä»Ķè£¤": 5834,
  "ï¼Įå°ıçº¢æľī": 5835,
  "éĹ°": 5836,
  "åĩºåİ»": 5837,
  "ç»´æĮģ": 5838,
  "çĶµè§Ĩåī§": 5839,
  "âĢĿæĪĸâĢľ": 5840,
  "éĽķ": 5841,
  "åľºæīĢ": 5842,
  "çļĦæĸĩç«łãĢĤ": 5843,
  "çĽ´å¾Ħ": 5844,
  "é»Ħçĵľ": 5845,
  "è¿ĩç¨ĭä¸Ńï¼Į": 5846,
  "ç¿»è¯ĳæĪĲä¸ŃæĸĩãĢĤ": 5847,
  "ansl": 5848,
  "ä¸¤äºº": 5849,
  "ï¼Įä¿ĿæĮģ": 5850,
  "èĪĴéĢĤçļĦ": 5851,
  "è¢«å¹¿æ³Ľ": 5852,
  "æĳĦåħ¥": 5853,
  "ç¥ŀç§ĺçļĦ": 5854,
  "è©": 5855,
  "å¸®æĤ¨": 5856,
  "Tom": 5857,
  "çļĦå±±å³°": 5858,
  "æĥħåĨµä¸ĭï¼Į": 5859,
  "comm": 5860,
  "ä¿¡ä»»": 5861,
  "ãĢĤä»ĸçļĦ": 5862,
  "çļĦæĦŁåıĹ": 5863,
  "è£Ĥ": 5864,
  "ï¼Įåı¯ä»¥åľ¨": 5865,
  "èĢģèĻİ": 5866,
  "æľįåĬ¡åĳĺ": 5867,
  "èµİ": 5868,
  "æĽ´ä¸º": 5869,
  "ä¸ºä¸»é¢ĺ": 5870,
  "ç¿»è¯ĳæĪĲèĭ±æĸĩï¼ļ": 5871,
  "mi": 5872,
  "åĩºè¡Į": 5873,
  "åº¦çļĦ": 5874,
  "éĤ»": 5875,
  "äºĭæķħ": 5876,
  "éģĵè·¯": 5877,
  "çŃĽ": 5878,
  "æľĢæĸ°çļĦ": 5879,
  "he": 5880,
  "ä½¿åħ¶": 5881,
  "æĸĩç«łä¸Ń": 5882,
  "ä¼ĺåĬ¿": 5883,
  "åħįçĸ«": 5884,
  "çļĦåľºæĻ¯": 5885,
  "éĩıåŃĲåĬĽåŃ¦": 5886,
  "è¯¸": 5887,
  "é¦Ļæ°Ķ": 5888,
  "ight": 5889,
  "åĲĦåľ°": 5890,
  "ä¸įè¶³": 5891,
  "èħ¾": 5892,
  "è¿Ł": 5893,
  "ç¿»è¯ĳä¸º": 5894,
  "ãĢĤĊåĪĨç±»": 5895,
  "ä¸ĢåĪĩ": 5896,
  "å¸Ĥä¸Ńå¿ĥ": 5897,
  "çļĦçĥ¤": 5898,
  "å°Ĭæķ¬": 5899,
  "çļĦæĻºèĥ½": 5900,
  "çĽ¸å½ĵ": 5901,
  "æĽ´åĩĨç¡®": 5902,
  "å¼ķæĵİ": 5903,
  "çĽ¸çŃī": 5904,
  "çļĦæĥħèĬĤ": 5905,
  "ç®ĢçŁŃçļĦ": 5906,
  "ä¸Ńå¤®": 5907,
  "æ´ĽæĿīçŁ¶": 5908,
  "Ġ=Ġ10": 5909,
  "äºĮæ°§åĮĸ": 5910,
  "ãĢĤæ¯ı": 5911,
  "ãĢĤè¿Ļé¦ĸ": 5912,
  "è¾ĵåħ¥çļĦ": 5913,
  "çİĭæĺŁ": 5914,
  "å«©": 5915,
  "çĽ¸åºĶçļĦ": 5916,
  "2=": 5917,
  "ï¼Įåı¯ä»¥å°Ĩ": 5918,
  "ï¼ĮæĪĲä¸º": 5919,
  "éĺ³åħīæĺİåªļ": 5920,
  "ä¹Łä¸į": 5921,
  "æĢ§åĪ«": 5922,
  "å¥ĩæķ°": 5923,
  "An": 5924,
  "éĢĹ": 5925,
  "ç´łé£Ł": 5926,
  "çĥŃéĹ¨": 5927,
  "è´ŁéĿ¢å½±åĵį": 5928,
  "ï¼Įèĥ½": 5929,
  "åĽ½åĨħ": 5930,
  "èĤīç±»": 5931,
  "çĵ·": 5932,
  "å®¶æĹı": 5933,
  "?Ċ": 5934,
  "å¨ľ": 5935,
  "è®²è¿°äºĨ": 5936,
  "ç¿»è¯ĳæĪĲè¥¿çıŃçīĻè¯Ń": 5937,
  "æģĴæĺŁ": 5938,
  "ãĢĤçĦ¶èĢĮï¼Į": 5939,
  "æ£ĭ": 5940,
  "åĮĹæŀģ": 5941,
  "æĺ¯ç¾İåĽ½": 5942,
  "æ±¤å§Ĩ": 5943,
  "ï¼ļä½ł": 5944,
  "ï¼ļ```python": 5945,
  "ãĢĤè¦ģ": 5946,
  "ï¼ī-Ġ": 5947,
  "åįĥåħĭ": 5948,
  "éĿŀæ´²": 5949,
  "åĴĮæľĭåıĭ": 5950,
  "å°ĸ": 5951,
  "è¿Ľå±ķ": 5952,
  "äºĨä¸Ģåıª": 5953,
  "ãĢĤ3.": 5954,
  "ç®Ģä»ĭ": 5955,
  "æ¨¡ä»¿": 5956,
  "reĠ": 5957,
  "åĲ¬è¯´": 5958,
  "éĺ¿çĶĺ": 5959,
  "æĺĵæĩĤ": 5960,
  "text": 5961,
  "ä½¿çĶ¨çļĦ": 5962,
  "å¤ĩçĶ¨": 5963,
  "æ¬¾å¼ı": 5964,
  "therĠ": 5965,
  "åįģå¹´": 5966,
  "ï¼Įæīįèĥ½": 5967,
  "inc": 5968,
  "loveĠ": 5969,
  "èĤĮèĤ¤": 5970,
  "èµĦæĸĻ": 5971,
  "ä»¥ä¸ĭæ®µèĲ½": 5972,
  "å©ļç¤¼": 5973,
  "åĮĸåĲĪçī©": 5974,
  "è¾¹éķ¿": 5975,
  "çļĦç¿»è¯ĳ": 5976,
  "omeĠ": 5977,
  "çº¢èī²çļĦ": 5978,
  "æķĳèµİ": 5979,
  "æīİ": 5980,
  "æ°´åĴĮ": 5981,
  "çī¹Â·": 5982,
  "defĠ": 5983,
  "æŁĶåĴĮ": 5984,
  "çļĦæ¨": 5985,
  "æŀ«": 5986,
  "son": 5987,
  "ä¹ĭå¤ĸï¼Į": 5988,
  "ï¼ĮåĽłä¸ºå®ĥä»¬": 5989,
  "æĪĳæĥ³çŁ¥éģĵ": 5990,
  "å£¶": 5991,
  "çº¿æĿ¡": 5992,
  "<unk>": 5993,
  "<s>": 5994,
  "</s>": 5995,
  "<|im_start|>": 5996,
  "<|im_end|>": 5997,
  "<|tool_call|>": 5998,
  "<|tool_response|>": 5999
}